{
  "version": "1.0",
  "truncation": null,
  "padding": null,
  "added_tokens": [
    {
      "id": 0,
      "content": "<|endoftext|>",
      "single_word": false,
      "lstrip": false,
      "rstrip": false,
      "normalized": false,
      "special": true
    },
    {
      "id": 1,
      "content": "<|pad|>",
      "single_word": false,
      "lstrip": false,
      "rstrip": false,
      "normalized": false,
      "special": true
    }
  ],
  "normalizer": null,
  "pre_tokenizer": {
    "type": "ByteLevel",
    "add_prefix_space": false,
    "trim_offsets": true,
    "use_regex": true
  },
  "post_processor": {
    "type": "ByteLevel",
    "add_prefix_space": true,
    "trim_offsets": false,
    "use_regex": true
  },
  "decoder": {
    "type": "ByteLevel",
    "add_prefix_space": true,
    "trim_offsets": true,
    "use_regex": true
  },
  "model": {
    "type": "BPE",
    "dropout": null,
    "unk_token": "<|endoftext|>",
    "continuing_subword_prefix": null,
    "end_of_word_suffix": null,
    "fuse_unk": false,
    "byte_fallback": false,
    "ignore_merges": false,
    "vocab": {
      "<|endoftext|>": 0,
      "<|pad|>": 1,
      "!": 2,
      "\"": 3,
      "#": 4,
      "$": 5,
      "%": 6,
      "&": 7,
      "'": 8,
      "(": 9,
      ")": 10,
      "*": 11,
      "+": 12,
      ",": 13,
      "-": 14,
      ".": 15,
      "/": 16,
      "0": 17,
      "1": 18,
      "2": 19,
      "3": 20,
      "4": 21,
      "5": 22,
      "6": 23,
      "7": 24,
      "8": 25,
      "9": 26,
      ":": 27,
      ";": 28,
      "<": 29,
      "=": 30,
      ">": 31,
      "?": 32,
      "@": 33,
      "A": 34,
      "B": 35,
      "C": 36,
      "D": 37,
      "E": 38,
      "F": 39,
      "G": 40,
      "H": 41,
      "I": 42,
      "J": 43,
      "K": 44,
      "L": 45,
      "M": 46,
      "N": 47,
      "O": 48,
      "P": 49,
      "Q": 50,
      "R": 51,
      "S": 52,
      "T": 53,
      "U": 54,
      "V": 55,
      "W": 56,
      "X": 57,
      "Y": 58,
      "Z": 59,
      "[": 60,
      "\\": 61,
      "]": 62,
      "^": 63,
      "_": 64,
      "`": 65,
      "a": 66,
      "b": 67,
      "c": 68,
      "d": 69,
      "e": 70,
      "f": 71,
      "g": 72,
      "h": 73,
      "i": 74,
      "j": 75,
      "k": 76,
      "l": 77,
      "m": 78,
      "n": 79,
      "o": 80,
      "p": 81,
      "q": 82,
      "r": 83,
      "s": 84,
      "t": 85,
      "u": 86,
      "v": 87,
      "w": 88,
      "x": 89,
      "y": 90,
      "z": 91,
      "{": 92,
      "|": 93,
      "}": 94,
      "~": 95,
      "¡": 96,
      "¢": 97,
      "£": 98,
      "¤": 99,
      "¥": 100,
      "¦": 101,
      "§": 102,
      "¨": 103,
      "©": 104,
      "ª": 105,
      "«": 106,
      "¬": 107,
      "®": 108,
      "¯": 109,
      "°": 110,
      "±": 111,
      "²": 112,
      "³": 113,
      "´": 114,
      "µ": 115,
      "¶": 116,
      "·": 117,
      "¸": 118,
      "¹": 119,
      "º": 120,
      "»": 121,
      "¼": 122,
      "½": 123,
      "¾": 124,
      "¿": 125,
      "À": 126,
      "Á": 127,
      "Â": 128,
      "Ã": 129,
      "Ä": 130,
      "Å": 131,
      "Æ": 132,
      "Ç": 133,
      "È": 134,
      "É": 135,
      "Ê": 136,
      "Ë": 137,
      "Ì": 138,
      "Í": 139,
      "Î": 140,
      "Ï": 141,
      "Ð": 142,
      "Ñ": 143,
      "Ò": 144,
      "Ó": 145,
      "Ô": 146,
      "Õ": 147,
      "Ö": 148,
      "×": 149,
      "Ø": 150,
      "Ù": 151,
      "Ú": 152,
      "Û": 153,
      "Ü": 154,
      "Ý": 155,
      "Þ": 156,
      "ß": 157,
      "à": 158,
      "á": 159,
      "â": 160,
      "ã": 161,
      "ä": 162,
      "å": 163,
      "æ": 164,
      "ç": 165,
      "è": 166,
      "é": 167,
      "ê": 168,
      "ë": 169,
      "ì": 170,
      "í": 171,
      "î": 172,
      "ï": 173,
      "ð": 174,
      "ñ": 175,
      "ò": 176,
      "ó": 177,
      "ô": 178,
      "õ": 179,
      "ö": 180,
      "÷": 181,
      "ø": 182,
      "ù": 183,
      "ú": 184,
      "û": 185,
      "ü": 186,
      "ý": 187,
      "þ": 188,
      "ÿ": 189,
      "Ā": 190,
      "ā": 191,
      "Ă": 192,
      "ă": 193,
      "Ą": 194,
      "ą": 195,
      "Ć": 196,
      "ć": 197,
      "Ĉ": 198,
      "ĉ": 199,
      "Ċ": 200,
      "ċ": 201,
      "Č": 202,
      "č": 203,
      "Ď": 204,
      "ď": 205,
      "Đ": 206,
      "đ": 207,
      "Ē": 208,
      "ē": 209,
      "Ĕ": 210,
      "ĕ": 211,
      "Ė": 212,
      "ė": 213,
      "Ę": 214,
      "ę": 215,
      "Ě": 216,
      "ě": 217,
      "Ĝ": 218,
      "ĝ": 219,
      "Ğ": 220,
      "ğ": 221,
      "Ġ": 222,
      "ġ": 223,
      "Ģ": 224,
      "ģ": 225,
      "Ĥ": 226,
      "ĥ": 227,
      "Ħ": 228,
      "ħ": 229,
      "Ĩ": 230,
      "ĩ": 231,
      "Ī": 232,
      "ī": 233,
      "Ĭ": 234,
      "ĭ": 235,
      "Į": 236,
      "į": 237,
      "İ": 238,
      "ı": 239,
      "Ĳ": 240,
      "ĳ": 241,
      "Ĵ": 242,
      "ĵ": 243,
      "Ķ": 244,
      "ķ": 245,
      "ĸ": 246,
      "Ĺ": 247,
      "ĺ": 248,
      "Ļ": 249,
      "ļ": 250,
      "Ľ": 251,
      "ľ": 252,
      "Ŀ": 253,
      "ŀ": 254,
      "Ł": 255,
      "ł": 256,
      "Ń": 257,
      "ĠĠ": 258,
      "ĠĠĠĠ": 259,
      "čĊ": 260,
      "ĠĠĠ": 261,
      "ĠĠĠĠĠĠĠ": 262,
      "in": 263,
      "on": 264,
      "se": 265,
      "at": 266,
      "or": 267,
      "es": 268,
      "en": 269,
      "er": 270,
      "Ġt": 271,
      "ĠĠĠĠĠĠĠĠĠĠĠ": 272,
      "Ġ=": 273,
      "de": 274,
      "al": 275,
      "ar": 276,
      "ut": 277,
      "ion": 278,
      "st": 279,
      "re": 280,
      "an": 281,
      "he": 282,
      "Ġi": 283,
      "as": 284,
      "lf": 285,
      "ed": 286,
      "self": 287,
      "it": 288,
      "Ġ\"": 289,
      "ro": 290,
      "Ġc": 291,
      "ing": 292,
      "pe": 293,
      "Ġn": 294,
      "Ġp": 295,
      "am": 296,
      "ig": 297,
      "Ġf": 298,
      "ct": 299,
      "Ġin": 300,
      "id": 301,
      "ch": 302,
      "le": 303,
      "Ġm": 304,
      "put": 305,
      "ĠĠĠĠĠĠĠĠĠĠĠĠĠĠĠ": 306,
      "Ġself": 307,
      "Ġs": 308,
      "iz": 309,
      "Ġo": 310,
      "Ġthe": 311,
      "est": 312,
      "ge": 313,
      "im": 314,
      "Ġd": 315,
      "lo": 316,
      "ent": 317,
      "\",": 318,
      "ra": 319,
      "):": 320,
      "Ġe": 321,
      "co": 322,
      "--": 323,
      "ce": 324,
      "Ġto": 325,
      "ode": 326,
      "Ġw": 327,
      "ur": 328,
      "ul": 329,
      "Ġ(": 330,
      "Ġde": 331,
      "la": 332,
      "Ġb": 333,
      "onf": 334,
      "um": 335,
      "onfig": 336,
      "odel": 337,
      "one": 338,
      "ize": 339,
      "Ġa": 340,
      "Ġre": 341,
      "and": 342,
      "Ġ1": 343,
      "qu": 344,
      "Ġ#": 345,
      "ame": 346,
      "att": 347,
      "ser": 348,
      "Ġis": 349,
      "pt": 350,
      "val": 351,
      "ate": 352,
      "ic": 353,
      "is": 354,
      "res": 355,
      "None": 356,
      "ad": 357,
      "ue": 358,
      "to": 359,
      "ype": 360,
      "Ġ[": 361,
      "un": 362,
      "ult": 363,
      "el": 364,
      "ken": 365,
      "Ġdef": 366,
      "ot": 367,
      "Ġif": 368,
      "sor": 369,
      "Ġof": 370,
      "mp": 371,
      "orch": 372,
      "age": 373,
      "th": 374,
      "],": 375,
      "den": 376,
      "orm": 377,
      "ation": 378,
      "ĠNone": 379,
      "utput": 380,
      "size": 381,
      "ĠT": 382,
      "()": 383,
      "\")": 384,
      "idden": 385,
      "type": 386,
      "hidden": 387,
      "di": 388,
      "li": 389,
      "ort": 390,
      "der": 391,
      "ol": 392,
      "rom": 393,
      "Ġfor": 394,
      "ke": 395,
      "Ġ)": 396,
      "tur": 397,
      "Ġ`": 398,
      "ention": 399,
      "turn": 400,
      "sert": 401,
      "ass": 402,
      "\"\"": 403,
      "po": 404,
      "ex": 405,
      "ht": 406,
      "Ġ2": 407,
      "assert": 408,
      "ask": 409,
      "str": 410,
      "test": 411,
      "ata": 412,
      "attention": 413,
      "00": 414,
      "up": 415,
      "Ġ*": 416,
      "em": 417,
      "ith": 418,
      "Ġex": 419,
      "ers": 420,
      "il": 421,
      "\":": 422,
      "int": 423,
      "ck": 424,
      "dex": 425,
      "atch": 426,
      "Ġ0": 427,
      "config": 428,
      "ional": 429,
      "Ġ-": 430,
      "__": 431,
      "----": 432,
      "Ġreturn": 433,
      "ates": 434,
      "ight": 435,
      "ha": 436,
      "lass": 437,
      "py": 438,
      "od": 439,
      "Ġnot": 440,
      "ensor": 441,
      "Ġand": 442,
      "(\"": 443,
      "ding": 444,
      "arg": 445,
      "len": 446,
      "ces": 447,
      "pro": 448,
      "states": 449,
      "coder": 450,
      "ran": 451,
      "ĠĠĠĠĠĠĠĠĠĠĠĠĠĠĠĠĠĠĠ": 452,
      "token": 453,
      "rue": 454,
      "ptional": 455,
      "par": 456,
      "bed": 457,
      "input": 458,
      "lay": 459,
      "),": 460,
      "mask": 461,
      "Ġmodel": 462,
      "pl": 463,
      "vi": 464,
      "ray": 465,
      "cted": 466,
      "Ġimp": 467,
      "ext": 468,
      "key": 469,
      "torch": 470,
      "model": 471,
      "che": 472,
      "get": 473,
      "..": 474,
      "Ġth": 475,
      "lab": 476,
      "Ġtest": 477,
      "ma": 478,
      "Ġinput": 479,
      "from": 480,
      "ĠA": 481,
      "ues": 482,
      "Ġse": 483,
      "=\"": 484,
      "ids": 485,
      "ĠS": 486,
      "result": 487,
      "ĠI": 488,
      "form": 489,
      "Ġwith": 490,
      ">>": 491,
      "all": 492,
      "values": 493,
      "ĠO": 494,
      "ab": 495,
      "Ġconfig": 496,
      "pre": 497,
      "\"]": 498,
      "pected": 499,
      "use": 500,
      "Ġimport": 501,
      "array": 502,
      "Ġor": 503,
      "hape": 504,
      "if": 505,
      "ver": 506,
      "Ġbe": 507,
      "args": 508,
      "om": 509,
      "els": 510,
      "[\"": 511,
      "ĠC": 512,
      "rain": 513,
      "dict": 514,
      "embed": 515,
      "ies": 516,
      "mage": 517,
      "Ġ\"\"\"": 518,
      "ve": 519,
      "Ġr": 520,
      "eat": 521,
      "output": 522,
      "os": 523,
      "Ġnp": 524,
      "class": 525,
      "ix": 526,
      "num": 527,
      "alse": 528,
      "Ġtorch": 529,
      "Ġexpected": 530,
      "ure": 531,
      "Ġ{": 532,
      "Ġg": 533,
      "loat": 534,
      "False": 535,
      "Ġ==": 536,
      "Ġ:": 537,
      "con": 538,
      "qual": 539,
      "Ġoutput": 540,
      "ter": 541,
      "Ġassert": 542,
      "Tensor": 543,
      ").": 544,
      "Ġnum": 545,
      "==": 546,
      "ault": 547,
      "Ġ3": 548,
      "Ġma": 549,
      "eight": 550,
      "Ġlo": 551,
      "True": 552,
      "rame": 553,
      "rans": 554,
      "ine": 555,
      "ition": 556,
      "ĠĠĠĠĠĠĠĠ": 557,
      "Ġen": 558,
      "ĠD": 559,
      "ĠL": 560,
      "us": 561,
      "Ġ_": 562,
      "et": 563,
      "izer": 564,
      "ror": 565,
      "ast": 566,
      "Ġy": 567,
      "name": 568,
      "ime": 569,
      "Ġtoken": 570,
      "ache": 571,
      "index": 572,
      "01": 573,
      "bo": 574,
      "Ġuse": 575,
      "Ġhidden": 576,
      "value": 577,
      "ise": 578,
      "ath": 579,
      "def": 580,
      "head": 581,
      "gth": 582,
      "list": 583,
      "layer": 584,
      "ore": 585,
      "Ġimage": 586,
      "Ġ+": 587,
      "ss": 588,
      "ĠP": 589,
      "Ġcon": 590,
      "ect": 591,
      "ĠOptional": 592,
      "length": 593,
      "set": 594,
      "image": 595,
      "Ġel": 596,
      "Ġ(`": 597,
      "Ġresult": 598,
      "Ġelse": 599,
      "oc": 600,
      "Ġh": 601,
      "port": 602,
      "ta": 603,
      "ence": 604,
      "Ġst": 605,
      "))": 606,
      "`,": 607,
      "ple": 608,
      "ile": 609,
      "._": 610,
      "ase": 611,
      "pos": 612,
      "Ġdefault": 613,
      "wargs": 614,
      "ial": 615,
      "Ġl": 616,
      "Ġdtype": 617,
      "cal": 618,
      "ense": 619,
      "per": 620,
      "Ġ'": 621,
      "cessor": 622,
      "([": 623,
      "ransform": 624,
      "data": 625,
      "dtype": 626,
      "ĠThe": 627,
      "are": 628,
      "bj": 629,
      "weight": 630,
      "ly": 631,
      "shape": 632,
      "Ġas": 633,
      "labels": 634,
      "ps": 635,
      "Ġattention": 636,
      "init": 637,
      "Ġco": 638,
      "icense": 639,
      "Ġfrom": 640,
      "ance": 641,
      "Ġpro": 642,
      "kwargs": 643,
      "arn": 644,
      "ðŁ": 645,
      "feat": 646,
      "vice": 647,
      "ampl": 648,
      "dim": 649,
      "ðŁļ": 650,
      "ðŁļ¨": 651,
      "Ġv": 652,
      "Ġon": 653,
      "ðŁļ¨ðŁļ¨": 654,
      "Ġdf": 655,
      "Er": 656,
      "ction": 657,
      "])": 658,
      "train": 659,
      "ew": 660,
      "ĠR": 661,
      "Error": 662,
      "In": 663,
      "ener": 664,
      "tr": 665,
      "ision": 666,
      "Ġun": 667,
      ">>>": 668,
      "raise": 669,
      "equal": 670,
      "optional": 671,
      "inputs": 672,
      "Model": 673,
      "Ġ>>>": 674,
      "ow": 675,
      "Ġ..": 676,
      "Ġpar": 677,
      "Ġstr": 678,
      "ann": 679,
      "Ġdi": 680,
      "text": 681,
      "ures": 682,
      "dings": 683,
      "Ġwh": 684,
      "Ġpre": 685,
      "ded": 686,
      "--------": 687,
      "##": 688,
      "Ġdata": 689,
      "time": 690,
      "ag": 691,
      "ĠX": 692,
      "batch": 693,
      "its": 694,
      "ator": 695,
      "norm": 696,
      "Ġpy": 697,
      "ub": 698,
      "ap": 699,
      "sion": 700,
      "pec": 701,
      "Ġthat": 702,
      "Ġ@": 703,
      "col": 704,
      "ĠG": 705,
      "ĠB": 706,
      "ack": 707,
      "ip": 708,
      "ment": 709,
      "ĠM": 710,
      "Ġ->": 711,
      "ule": 712,
      "ns": 713,
      "np": 714,
      "Ġ4": 715,
      "ĠW": 716,
      "ill": 717,
      "ib": 718,
      "log": 719,
      "Ġint": 720,
      "ff": 721,
      "path": 722,
      "ĠLicense": 723,
      "position": 724,
      "ard": 725,
      "attn": 726,
      "ĠIn": 727,
      "ind": 728,
      "ctor": 729,
      "ir": 730,
      "ample": 731,
      "odule": 732,
      "Ġan": 733,
      "idx": 734,
      "Ġare": 735,
      "ĠN": 736,
      "Ġindex": 737,
      "eries": 738,
      "andom": 739,
      "Ġpytest": 740,
      "Ġtm": 741,
      "ant": 742,
      "Ġ...": 743,
      "roup": 744,
      "amples": 745,
      "float": 746,
      "quence": 747,
      "layers": 748,
      "Ġbo": 749,
      "64": 750,
      "state": 751,
      "Ġx": 752,
      "ist": 753,
      "max": 754,
      "Frame": 755,
      "ames": 756,
      "heck": 757,
      "tokens": 758,
      "cl": 759,
      "sc": 760,
      "Ġ[\"": 761,
      "pytest": 762,
      "end": 763,
      "range": 764,
      "cess": 765,
      "ust": 766,
      "bject": 767,
      "ataFrame": 768,
      "able": 769,
      "\"\"\"": 770,
      "ay": 771,
      "ĠE": 772,
      "Ġkey": 773,
      "16": 774,
      "====": 775,
      "Ġdo": 776,
      "Config": 777,
      "me": 778,
      "Ġ**": 779,
      "ary": 780,
      "art": 781,
      "//": 782,
      "ĠFalse": 783,
      "ĠV": 784,
      "stance": 785,
      "import": 786,
      "Ġby": 787,
      "device": 788,
      "Ġres": 789,
      "For": 790,
      "eg": 791,
      "out": 792,
      "Ġmax": 793,
      "ĠTrue": 794,
      "Ġinputs": 795,
      "Ġcol": 796,
      "embeddings": 797,
      "ark": 798,
      "\"),": 799,
      "features": 800,
      "fa": 801,
      "\"],": 802,
      "ber": 803,
      "heads": 804,
      "ho": 805,
      "qui": 806,
      "ft": 807,
      "ee": 808,
      "low": 809,
      "*,": 810,
      "Ġ5": 811,
      "Ġlist": 812,
      "Ġpos": 813,
      "gg": 814,
      "',": 815,
      "ds": 816,
      "thod": 817,
      "Ġthis": 818,
      "Ġdefaults": 819,
      "Ġsup": 820,
      "[:": 821,
      "ong": 822,
      "Ġmask": 823,
      "ive": 824,
      "Ġal": 825,
      "Ġget": 826,
      "ulti": 827,
      "tensor": 828,
      "point": 829,
      "ĠU": 830,
      "ateg": 831,
      "():": 832,
      "dro": 833,
      "uto": 834,
      "Ġpad": 835,
      "ocab": 836,
      "Ġit": 837,
      "pout": 838,
      "parame": 839,
      "inal": 840,
      "ĠDataFrame": 841,
      "encoder": 842,
      "uple": 843,
      "__(": 844,
      "attr": 845,
      "decoder": 846,
      "Ġset": 847,
      "fer": 848,
      "cept": 849,
      "Ġnn": 850,
      "ity": 851,
      "ias": 852,
      "atetime": 853,
      "attentions": 854,
      "02": 855,
      "cache": 856,
      "ated": 857,
      "ices": 858,
      "Ġraise": 859,
      "Ġk": 860,
      "Ġvalue": 861,
      "ou": 862,
      "Ġshape": 863,
      "ils": 864,
      "mark": 865,
      "`):": 866,
      "com": 867,
      "embeds": 868,
      "Ġall": 869,
      "asse": 870,
      "ern": 871,
      "file": 872,
      "outputs": 873,
      "Ġ(\"": 874,
      "frame": 875,
      "]]": 876,
      "alue": 877,
      ".__": 878,
      "ific": 879,
      "lock": 880,
      "Ġme": 881,
      "Ġle": 882,
      "ther": 883,
      "Ġcheck": 884,
      "for": 885,
      "Ġ100": 886,
      "Ġwe": 887,
      "`.": 888,
      "pad": 889,
      "proj": 890,
      "arget": 891,
      "alueError": 892,
      "line": 893,
      "row": 894,
      "fun": 895,
      "Ġvalues": 896,
      "mbed": 897,
      "kip": 898,
      "arning": 899,
      "vide": 900,
      "idth": 901,
      "Ġ__": 902,
      "processor": 903,
      "ward": 904,
      "fo": 905,
      "bool": 906,
      "},": 907,
      "ON": 908,
      "ibut": 909,
      "Ġfeat": 910,
      "uld": 911,
      "Index": 912,
      "cale": 913,
      "Test": 914,
      "parse": 915,
      "instance": 916,
      "valid": 917,
      "Ġper": 918,
      "string": 919,
      "iv": 920,
      "Ġname": 921,
      "Ġclass": 922,
      "Ġlayer": 923,
      "umns": 924,
      "ransformers": 925,
      "].": 926,
      "check": 927,
      "nan": 928,
      "fit": 929,
      "ðŁļ¨ðŁļ¨ðŁļ¨ðŁļ¨": 930,
      "ĠĠĠĠĠĠĠĠĠĠĠĠĠĠĠĠĠĠĠĠĠĠĠ": 931,
      "IN": 932,
      "ifi": 933,
      "andas": 934,
      "ĠSeries": 935,
      "sg": 936,
      "act": 937,
      "Ġwill": 938,
      "vert": 939,
      "Equal": 940,
      "ide": 941,
      "ess": 942,
      "ersion": 943,
      "Ġencoder": 944,
      "imator": 945,
      "label": 946,
      "Ġ<": 947,
      "utils": 948,
      "Ġpd": 949,
      "ere": 950,
      "yp": 951,
      "samples": 952,
      "ategor": 953,
      "comp": 954,
      "tain": 955,
      "Ġspec": 956,
      "code": 957,
      "pa": 958,
      "mo": 959,
      "201": 960,
      "Ġ``": 961,
      "ĠRe": 962,
      "av": 963,
      "ĠF": 964,
      "Ġmatch": 965,
      "Ġsize": 966,
      "Ġused": 967,
      "logits": 968,
      "trained": 969,
      "Ġisinstance": 970,
      "ations": 971,
      "req": 972,
      "xis": 973,
      "quire": 974,
      "Ġtokenizer": 975,
      "ixel": 976,
      "process": 977,
      "lable": 978,
      "Ġdim": 979,
      "ents": 980,
      "ension": 981,
      "htt": 982,
      "ep": 983,
      "10": 984,
      "Ġch": 985,
      "height": 986,
      "ach": 987,
      "with": 988,
      "ages": 989,
      "ĠH": 990,
      "his": 991,
      "dropout": 992,
      "Ġoutputs": 993,
      "Ġqu": 994,
      "####": 995,
      "inter": 996,
      "Ġtext": 997,
      "Ġlen": 998,
      "rit": 999,
      "eneration": 1000,
      "Ġposition": 1001,
      "df": 1002,
      "ang": 1003,
      "Ġbool": 1004,
      "ĠIf": 1005,
      "Ġbatch": 1006,
      "pp": 1007,
      "series": 1008,
      "ters": 1009,
      "://": 1010,
      "cor": 1011,
      "uration": 1012,
      "annels": 1013,
      "Ġcan": 1014,
      "patch": 1015,
      "last": 1016,
      "Float": 1017,
      "prob": 1018,
      "hould": 1019,
      "32": 1020,
      "group": 1021,
      "Ġat": 1022,
      "Ġsequence": 1023,
      "TI": 1024,
      "fix": 1025,
      "Ġcomp": 1026,
      "gging": 1027,
      "Ġhas": 1028,
      "**": 1029,
      "12": 1030,
      "vision": 1031,
      "tester": 1032,
      "param": 1033,
      "estimator": 1034,
      "Pro": 1035,
      "Ġunder": 1036,
      "ts": 1037,
      "Ġtype": 1038,
      "Ġad": 1039,
      "pretrained": 1040,
      "random": 1041,
      "Ġ{\"": 1042,
      "lif": 1043,
      "Ġnew": 1044,
      "udi": 1045,
      "names": 1046,
      "xes": 1047,
      "bias": 1048,
      "min": 1049,
      "Ġ|": 1050,
      "ign": 1051,
      "Ġlabels": 1052,
      "assertEqual": 1053,
      "learn": 1054,
      "parametr": 1055,
      "FloatTensor": 1056,
      "Ġdecoder": 1057,
      "ery": 1058,
      "iod": 1059,
      "udio": 1060,
      "Ġwhen": 1061,
      "Ġcom": 1062,
      "dir": 1063,
      "Ġexp": 1064,
      "ized": 1065,
      "parametrize": 1066,
      "Ġembed": 1067,
      "Ġloss": 1068,
      "Ġinit": 1069,
      "ual": 1070,
      "Ġshould": 1071,
      "Ġelif": 1072,
      "To": 1073,
      "error": 1074,
      "Ġcache": 1075,
      "loc": 1076,
      "video": 1077,
      "Ġarray": 1078,
      "Ġsuper": 1079,
      "Ġ/": 1080,
      "Ġ1001": 1081,
      "aus": 1082,
      "Ġid": 1083,
      "Ġfun": 1084,
      "pend": 1085,
      "irst": 1086,
      "Train": 1087,
      "loss": 1088,
      "ac": 1089,
      "ai": 1090,
      "Ġ216": 1091,
      "Ġfloat": 1092,
      "etr": 1093,
      "channels": 1094,
      "vel": 1095,
      "[:,": 1096,
      "Ġobject": 1097,
      "op": 1098,
      "pr": 1099,
      "seq": 1100,
      "format": 1101,
      "weights": 1102,
      "lace": 1103,
      "Ġ>": 1104,
      "ical": 1105,
      "plit": 1106,
      "tokenizer": 1107,
      "vocab": 1108,
      "doc": 1109,
      "item": 1110,
      "Ġeach": 1111,
      "emp": 1112,
      "Ġap": 1113,
      "edi": 1114,
      "Pre": 1115,
      "gs": 1116,
      "pare": 1117,
      "ross": 1118,
      "ĠValueError": 1119,
      "images": 1120,
      "AS": 1121,
      "Ġdevice": 1122,
      "spec": 1123,
      "Ġso": 1124,
      "ll": 1125,
      "Ġweight": 1126,
      "Ġmethod": 1127,
      "na": 1128,
      "Ġfile": 1129,
      "mean": 1130,
      "raises": 1131,
      "LM": 1132,
      "Ġlog": 1133,
      "no": 1134,
      "Ġ7": 1135,
      "start": 1136,
      "ng": 1137,
      "conv": 1138,
      "module": 1139,
      "so": 1140,
      "asses": 1141,
      "lib": 1142,
      "jo": 1143,
      "quest": 1144,
      "Ġ--------": 1145,
      "Ġ6": 1146,
      "Ġinter": 1147,
      "eps": 1148,
      "ĠThis": 1149,
      "ification": 1150,
      "coding": 1151,
      "\"])": 1152,
      "sh": 1153,
      "ges": 1154,
      "zer": 1155,
      "do": 1156,
      "block": 1157,
      "ausal": 1158,
      "ES": 1159,
      "klearn": 1160,
      "Ġpast": 1161,
      "ord": 1162,
      "ions": 1163,
      "Ġro": 1164,
      "Token": 1165,
      "transform": 1166,
      "{\"": 1167,
      "Ġtrain": 1168,
      "normal": 1169,
      "Trained": 1170,
      "ifier": 1171,
      "ĠUn": 1172,
      "========": 1173,
      "Ġmay": 1174,
      "ĠGH": 1175,
      "score": 1176,
      "Ġha": 1177,
      "Ġpass": 1178,
      "Output": 1179,
      "place": 1180,
      "Ġattn": 1181,
      "append": 1182,
      "Ġtransformers": 1183,
      "like": 1184,
      "iss": 1185,
      "stribut": 1186,
      "medi": 1187,
      "Ġpandas": 1188,
      "ml": 1189,
      "lose": 1190,
      "ailable": 1191,
      "sum": 1192,
      "Processor": 1193,
      "inear": 1194,
      "nt": 1195,
      "feature": 1196,
      "date": 1197,
      "arr": 1198,
      "Image": 1199,
      "ization": 1200,
      "Ġtr": 1201,
      "Ġpo": 1202,
      "Class": 1203,
      "ok": 1204,
      "skip": 1205,
      "000": 1206,
      "ĠReturn": 1207,
      "del": 1208,
      "ply": 1209,
      "ernel": 1210,
      "nd": 1211,
      "predict": 1212,
      "lot": 1213,
      "mentation": 1214,
      "Ġ10": 1215,
      "ĠEx": 1216,
      "object": 1217,
      "ypes": 1218,
      "cat": 1219,
      "ange": 1220,
      "Ġcl": 1221,
      "Ar": 1222,
      "gra": 1223,
      "Ġus": 1224,
      "Ġpadding": 1225,
      "*):": 1226,
      "Ġtarget": 1227,
      "mon": 1228,
      "rid": 1229,
      "((": 1230,
      "new": 1231,
      "iginal": 1232,
      "keys": 1233,
      "Ġ]": 1234,
      "().__": 1235,
      "unk": 1236,
      "Ġcopy": 1237,
      "Ġ8": 1238,
      "right": 1239,
      "Ġrandom": 1240,
      "by": 1241,
      "[-": 1242,
      "Ġout": 1243,
      "Ġforward": 1244,
      "Ġdict": 1245,
      "read": 1246,
      "ument": 1247,
      "Ġnumber": 1248,
      "ich": 1249,
      "auto": 1250,
      "EN": 1251,
      "ĠAr": 1252,
      "Ġtokens": 1253,
      "Ġtime": 1254,
      "amp": 1255,
      "Ġarg": 1256,
      "ugging": 1257,
      "ari": 1258,
      "amb": 1259,
      "und": 1260,
      "Ġhave": 1261,
      "mediate": 1262,
      "Ġne": 1263,
      "Ġrange": 1264,
      "Ġno": 1265,
      "Ġrequire": 1266,
      "Long": 1267,
      "ef": 1268,
      "msg": 1269,
      "Ġfeature": 1270,
      "Ġyou": 1271,
      "tra": 1272,
      "Ġ):": 1273,
      "Ġ`(": 1274,
      "ative": 1275,
      "Ġdistribut": 1276,
      "tuple": 1277,
      "itional": 1278,
      "ĠSee": 1279,
      "nn": 1280,
      "Ġhtt": 1281,
      "add": 1282,
      "stru": 1283,
      "etric": 1284,
      "(),": 1285,
      "back": 1286,
      "mages": 1287,
      "Ġcolumns": 1288,
      "Ġ.": 1289,
      "imest": 1290,
      "LongTensor": 1291,
      "``": 1292,
      "iter": 1293,
      "ull": 1294,
      "load": 1295,
      "Ġprocessor": 1296,
      "ameters": 1297,
      "params": 1298,
      "Ġform": 1299,
      "Ġright": 1300,
      "ĠK": 1301,
      "Ġsh": 1302,
      "Ġonly": 1303,
      "oth": 1304,
      "ayer": 1305,
      "umn": 1306,
      "}.": 1307,
      "reate": 1308,
      "processing": 1309,
      "Con": 1310,
      "tt": 1311,
      "Ġconfiguration": 1312,
      "99": 1313,
      "ww": 1314,
      "Ġtuple": 1315,
      "Ġimages": 1316,
      "available": 1317,
      "ree": 1318,
      "delta": 1319,
      "AR": 1320,
      "width": 1321,
      "Ġ}": 1322,
      "ression": 1323,
      "Ġ!": 1324,
      "ipe": 1325,
      "angu": 1326,
      "method": 1327,
      "PreTrained": 1328,
      "ne": 1329,
      "reg": 1330,
      "PE": 1331,
      "Ġfunction": 1332,
      "face": 1333,
      "AN": 1334,
      "Ġdatetime": 1335,
      "own": 1336,
      "Ġmin": 1337,
      "Ġ],": 1338,
      "Ġ!=": 1339,
      "Ġwhich": 1340,
      "gener": 1341,
      "(-": 1342,
      "Ġexcept": 1343,
      "atr": 1344,
      "Ġwidth": 1345,
      "})": 1346,
      "anguage": 1347,
      "default": 1348,
      "tensors": 1349,
      "Ġind": 1350,
      "Module": 1351,
      "extra": 1352,
      "ĠY": 1353,
      "Ġ[`": 1354,
      "]:": 1355,
      "da": 1356,
      "std": 1357,
      "Ġ%": 1358,
      "\"):": 1359,
      "unit": 1360,
      "past": 1361,
      "expected": 1362,
      "Layer": 1363,
      "scor": 1364,
      "indow": 1365,
      "du": 1366,
      "ie": 1367,
      "Ġusing": 1368,
      "igh": 1369,
      "lice": 1370,
      "map": 1371,
      "return": 1372,
      "pect": 1373,
      "Ġidx": 1374,
      ":`": 1375,
      "Ġother": 1376,
      "ave": 1377,
      "lm": 1378,
      "Ġdistributed": 1379,
      "info": 1380,
      "ally": 1381,
      "func": 1382,
      "LI": 1383,
      "Ġac": 1384,
      "squ": 1385,
      "io": 1386,
      "Ġadd": 1387,
      "Ġpixel": 1388,
      "indices": 1389,
      "lement": 1390,
      "Ġtensor": 1391,
      "Ġgroup": 1392,
      "classes": 1393,
      "ĠĠĠĠĠĠĠĠĠĠĠĠĠĠĠĠ": 1394,
      "Ġser": 1395,
      "Ġone": 1396,
      "TION": 1397,
      "ER": 1398,
      "olut": 1399,
      "=[": 1400,
      "split": 1401,
      "Tokenizer": 1402,
      "Ġpatch": 1403,
      "Ġaxis": 1404,
      "lob": 1405,
      "hether": 1406,
      "ðŁļ¨ðŁļ¨ðŁļ¨ðŁļ¨ðŁļ¨ðŁļ¨ðŁļ¨ðŁļ¨": 1407,
      "annel": 1408,
      "bone": 1409,
      "Ġsupport": 1410,
      "special": 1411,
      "sub": 1412,
      "annot": 1413,
      "rompt": 1414,
      "=[\"": 1415,
      "rop": 1416,
      "ategorical": 1417,
      "old": 1418,
      "gn": 1419,
      "exp": 1420,
      "bin": 1421,
      "Ġstring": 1422,
      "Ġsklearn": 1423,
      "imestamp": 1424,
      "freq": 1425,
      "factor": 1426,
      "over": 1427,
      "ory": 1428,
      "trans": 1429,
      "ines": 1430,
      "ttention": 1431,
      "Ġlogits": 1432,
      "Ġ),": 1433,
      "Ġcomput": 1434,
      "dataset": 1435,
      "arch": 1436,
      "ĠReturns": 1437,
      "base": 1438,
      "types": 1439,
      "'s": 1440,
      "sample": 1441,
      "view": 1442,
      "([\"": 1443,
      "lip": 1444,
      "sequence": 1445,
      "ors": 1446,
      "Ġcor": 1447,
      "ved": 1448,
      "ech": 1449,
      "().": 1450,
      "Ġover": 1451,
      "ze": 1452,
      "rect": 1453,
      "Ġinitial": 1454,
      "ection": 1455,
      "columns": 1456,
      "plot": 1457,
      "Ġsc": 1458,
      "Ġvocab": 1459,
      "100": 1460,
      "urr": 1461,
      "pth": 1462,
      "Ġstart": 1463,
      "close": 1464,
      "----------------": 1465,
      "sent": 1466,
      "Ġsample": 1467,
      "Ġlength": 1468,
      "obj": 1469,
      "De": 1470,
      "pping": 1471,
      "ler": 1472,
      "ipeline": 1473,
      "join": 1474,
      "uff": 1475,
      "Ġquery": 1476,
      "ca": 1477,
      "ĠIndex": 1478,
      "Array": 1479,
      "sed": 1480,
      "target": 1481,
      ".\"": 1482,
      "prepare": 1483,
      "Ġgener": 1484,
      "Ġlast": 1485,
      "numpy": 1486,
      "Ġfreq": 1487,
      "Ġpytester": 1488,
      "copy": 1489,
      "Ġsub": 1490,
      "56": 1491,
      "Ġdif": 1492,
      "ference": 1493,
      "Ġconvert": 1494,
      "Ġinst": 1495,
      "Ġseq": 1496,
      "Linear": 1497,
      "Ġnorm": 1498,
      "Ex": 1499,
      "the": 1500,
      "peech": 1501,
      "assed": 1502,
      "Ġweights": 1503,
      "Ġmake": 1504,
      "ous": 1505,
      "coun": 1506,
      "Ġoriginal": 1507,
      "thon": 1508,
      "Ġpr": 1509,
      "Ġ//": 1510,
      "TE": 1511,
      "########": 1512,
      "20": 1513,
      "Ġfeatures": 1514,
      "pixel": 1515,
      "Ġ9": 1516,
      "())": 1517,
      "izes": 1518,
      "ither": 1519,
      "Ġparser": 1520,
      "wise": 1521,
      "mod": 1522,
      "Ġmore": 1523,
      "hel": 1524,
      "UT": 1525,
      "ĠTest": 1526,
      "SE": 1527,
      "left": 1528,
      "Ġerror": 1529,
      "Ġformat": 1530,
      "Mix": 1531,
      "Ġup": 1532,
      "Ġob": 1533,
      "son": 1534,
      "ĠAuto": 1535,
      "cision": 1536,
      "coded": 1537,
      ",)": 1538,
      "dient": 1539,
      "issing": 1540,
      "modeling": 1541,
      "ĠPar": 1542,
      "fil": 1543,
      "'t": 1544,
      "Ġmodule": 1545,
      "ameter": 1546,
      "atrix": 1547,
      "({\"": 1548,
      "ndarray": 1549,
      "Type": 1550,
      "multi": 1551,
      "Ġcont": 1552,
      "Ġfa": 1553,
      "ork": 1554,
      "quen": 1555,
      "bs": 1556,
      "Ġvision": 1557,
      "eeze": 1558,
      "30": 1559,
      "15": 1560,
      "scores": 1561,
      "axis": 1562,
      "json": 1563,
      "ransformer": 1564,
      "imple": 1565,
      "Ġ12": 1566,
      "ug": 1567,
      "lect": 1568,
      "foo": 1569,
      "run": 1570,
      "off": 1571,
      "les": 1572,
      "plic": 1573,
      "wen": 1574,
      "Ġend": 1575,
      "Ġdoes": 1576,
      "Ġargs": 1577,
      "pert": 1578,
      "Se": 1579,
      "training": 1580,
      "ING": 1581,
      "Ġsame": 1582,
      "Ġembeddings": 1583,
      "cond": 1584,
      "docstring": 1585,
      "scal": 1586,
      "Ġheight": 1587,
      "keep": 1588,
      "Ġcase": 1589,
      "iel": 1590,
      "Ġ[]": 1591,
      "\"))": 1592,
      "datetime": 1593,
      "(**": 1594,
      "Norm": 1595,
      "pace": 1596,
      "ify": 1597,
      "ture": 1598,
      "raw": 1599,
      "Ġhead": 1600,
      "ash": 1601,
      "ĠCo": 1602,
      "match": 1603,
      "pty": 1604,
      "points": 1605,
      "OD": 1606,
      "emory": 1607,
      "14": 1608,
      "Ġmulti": 1609,
      "ning": 1610,
      "squeeze": 1611,
      ".\"\"\"": 1612,
      "Un": 1613,
      "Ġvalid": 1614,
      "ert": 1615,
      "Ġmust": 1616,
      "pred": 1617,
      "lobal": 1618,
      "ĠPy": 1619,
      "Ġmsg": 1620,
      "urrent": 1621,
      "Ġfirst": 1622,
      "Ġlanguage": 1623,
      "wer": 1624,
      "pen": 1625,
      "Ġrequired": 1626,
      "Ġskip": 1627,
      "ress": 1628,
      "testing": 1629,
      "ingle": 1630,
      "ĠArgs": 1631,
      "astype": 1632,
      "less": 1633,
      "Ġbut": 1634,
      "af": 1635,
      "convert": 1636,
      "200": 1637,
      "opt": 1638,
      "]],": 1639,
      "Attention": 1640,
      "En": 1641,
      "Ġestimator": 1642,
      "level": 1643,
      "ValueError": 1644,
      "pon": 1645,
      "warning": 1646,
      "ead": 1647,
      "call": 1648,
      "og": 1649,
      "ampling": 1650,
      "Ġstate": 1651,
      "Ġpath": 1652,
      "Ġeither": 1653,
      "Ġbase": 1654,
      "Ġcall": 1655,
      "\"{": 1656,
      "sp": 1657,
      "Ġpa": 1658,
      "of": 1659,
      "Ġnumpy": 1660,
      "Ġcontain": 1661,
      "audio": 1662,
      "org": 1663,
      "cont": 1664,
      "Ġpredict": 1665,
      "\").": 1666,
      "Mixin": 1667,
      "onents": 1668,
      "ched": 1669,
      "checkpoint": 1670,
      "Text": 1671,
      "cy": 1672,
      "Ġpassed": 1673,
      "ied": 1674,
      "eval": 1675,
      "function": 1676,
      "boxes": 1677,
      "ible": 1678,
      "Ġign": 1679,
      "ĠWhether": 1680,
      "TH": 1681,
      "box": 1682,
      "word": 1683,
      "Ġwrit": 1684,
      "fl": 1685,
      "ax": 1686,
      "ename": 1687,
      "pose": 1688,
      "imit": 1689,
      "scale": 1690,
      "03": 1691,
      "Ġversion": 1692,
      "`]": 1693,
      "etad": 1694,
      "etadata": 1695,
      "eam": 1696,
      "writ": 1697,
      "Ġ`\"": 1698,
      "tw": 1699,
      "MA": 1700,
      "]),": 1701,
      "ĠQ": 1702,
      "ĠĠĠĠĠ": 1703,
      "first": 1704,
      "Ġnames": 1705,
      "Ġvideo": 1706,
      "unc": 1707,
      "cent": 1708,
      "iods": 1709,
      "zeros": 1710,
      "only": 1711,
      "Ġdataset": 1712,
      "04": 1713,
      "0000": 1714,
      "IL": 1715,
      "cr": 1716,
      "arange": 1717,
      "lied": 1718,
      "05": 1719,
      "Tester": 1720,
      "Ġkwargs": 1721,
      "olution": 1722,
      "cs": 1723,
      "true": 1724,
      "11": 1725,
      "des": 1726,
      "\"].": 1727,
      "assertTrue": 1728,
      "Ġtraining": 1729,
      "sparse": 1730,
      "prefix": 1731,
      "require": 1732,
      "25": 1733,
      "my": 1734,
      "Ġload": 1735,
      "Ġ\\": 1736,
      "rope": 1737,
      "sizes": 1738,
      "Ġneed": 1739,
      "struct": 1740,
      "lean": 1741,
      "__()": 1742,
      "offset": 1743,
      "atio": 1744,
      "models": 1745,
      "Ġparam": 1746,
      "Ġfil": 1747,
      "pol": 1748,
      "DI": 1749,
      "not": 1750,
      "Ġnon": 1751,
      "gre": 1752,
      "Ġreg": 1753,
      "ys": 1754,
      ".,": 1755,
      "}\"": 1756,
      "ted": 1757,
      "Ġany": 1758,
      "generate": 1759,
      "Ġspecific": 1760,
      "linear": 1761,
      "iqu": 1762,
      "Ġleft": 1763,
      "kernel": 1764,
      "Ġscor": 1765,
      "ModelOutput": 1766,
      "query": 1767,
      "common": 1768,
      "long": 1769,
      "Ġ----": 1770,
      "yn": 1771,
      "ĠFor": 1772,
      "pha": 1773,
      "::": 1774,
      "forward": 1775,
      "TIONS": 1776,
      "ak": 1777,
      "19": 1778,
      "Ġscal": 1779,
      "Ġ+=": 1780,
      "Ġaudio": 1781,
      "OR": 1782,
      "replace": 1783,
      "Ġ----------": 1784,
      ".{": 1785,
      "version": 1786,
      "IS": 1787,
      "ays": 1788,
      "intermediate": 1789,
      "Ġq": 1790,
      "fn": 1791,
      "Ġoff": 1792,
      "ield": 1793,
      "Ġback": 1794,
      "ategories": 1795,
      "ict": 1796,
      "Ġarr": 1797,
      "24": 1798,
      "Ġrequest": 1799,
      "post": 1800,
      "embedding": 1801,
      "Series": 1802,
      "ting": 1803,
      "Ġcreate": 1804,
      "padding": 1805,
      "generation": 1806,
      "ans": 1807,
      "Ġlayers": 1808,
      "Ġobtain": 1809,
      "gine": 1810,
      "Fa": 1811,
      "Ġlabel": 1812,
      "Ġtemp": 1813,
      "Ġdiffer": 1814,
      "Ġunit": 1815,
      "uments": 1816,
      "Ġindices": 1817,
      "ĠBase": 1818,
      "Ġgetattr": 1819,
      "served": 1820,
      "tz": 1821,
      "reshape": 1822,
      "fill": 1823,
      "masks": 1824,
      "ustom": 1825,
      "zero": 1826,
      "quant": 1827,
      "With": 1828,
      "Ġ:,": 1829,
      "ĠCon": 1830,
      "Ġ[[": 1831,
      "any": 1832,
      "Ġorder": 1833,
      "ĠParameters": 1834,
      "ĠYou": 1835,
      "Vision": 1836,
      "Ġframe": 1837,
      "Dtype": 1838,
      "`:": 1839,
      "items": 1840,
      "components": 1841,
      "ĠNot": 1842,
      "=-": 1843,
      "ĠMulti": 1844,
      "ivation": 1845,
      "ware": 1846,
      "resize": 1847,
      "Ġbias": 1848,
      "Ġnormal": 1849,
      "ason": 1850,
      "book": 1851,
      "te": 1852,
      "pu": 1853,
      "Ġids": 1854,
      "Ġblock": 1855,
      "ambda": 1856,
      "window": 1857,
      "eric": 1858,
      "vari": 1859,
      "Ġobj": 1860,
      "slice": 1861,
      "Ġdimension": 1862,
      "ms": 1863,
      "Ġact": 1864,
      "Ġprint": 1865,
      "help": 1866,
      "pandas": 1867,
      "attribut": 1868,
      "resh": 1869,
      "Ġrng": 1870,
      "ager": 1871,
      "mis": 1872,
      "Ġdoc": 1873,
      "33": 1874,
      "ausalLM": 1875,
      "ĠSe": 1876,
      "patches": 1877,
      "Ġlimit": 1878,
      "ome": 1879,
      "andard": 1880,
      "bar": 1881,
      "uc": 1882,
      "ility": 1883,
      "([[": 1884,
      "Ġparameter": 1885,
      "Ġver": 1886,
      "Ġla": 1887,
      "ĠNum": 1888,
      "Ġapply": 1889,
      "ĠAN": 1890,
      "logg": 1891,
      "ropout": 1892,
      "lection": 1893,
      "ST": 1894,
      "atic": 1895,
      "PreTrainedModel": 1896,
      ")),": 1897,
      "uggingface": 1898,
      "ec": 1899,
      "tmp": 1900,
      "drop": 1901,
      "---": 1902,
      "temp": 1903,
      "transpose": 1904,
      "ified": 1905,
      "ĠWe": 1906,
      "ords": 1907,
      "user": 1908,
      "ama": 1909,
      "url": 1910,
      "encoding": 1911,
      "Encoder": 1912,
      "OUT": 1913,
      "Classifier": 1914,
      "lines": 1915,
      "Ġclf": 1916,
      "18": 1917,
      "ĠCON": 1918,
      "ny": 1919,
      "ph": 1920,
      "Ġhttps": 1921,
      "Ġsoft": 1922,
      "rel": 1923,
      "ick": 1924,
      "Ġfit": 1925,
      "Ġdis": 1926,
      "ĠAp": 1927,
      "ink": 1928,
      "Reg": 1929,
      "Ġtz": 1930,
      "metric": 1931,
      "normalize": 1932,
      "rng": 1933,
      "License": 1934,
      "apt": 1935,
      "ĠANY": 1936,
      "grad": 1937,
      "Ġax": 1938,
      "ared": 1939,
      "ĠUnion": 1940,
      "tal": 1941,
      "Ġos": 1942,
      "RAN": 1943,
      "Ġsin": 1944,
      "blocks": 1945,
      "cls": 1946,
      "ique": 1947,
      "Ġopt": 1948,
      "gr": 1949,
      "Ġwarning": 1950,
      "vector": 1951,
      "Ġpoint": 1952,
      "Ġdifferent": 1953,
      "Ġhttp": 1954,
      "essage": 1955,
      "Ġass": 1956,
      "idual": 1957,
      "clu": 1958,
      "Ġsparse": 1959,
      "Ġj": 1960,
      "Ġprob": 1961,
      "ular": 1962,
      "count": 1963,
      "stack": 1964,
      "Ġ202": 1965,
      "https": 1966,
      ".\")": 1967,
      "parameters": 1968,
      "NA": 1969,
      "Ġmo": 1970,
      "ars": 1971,
      "Ġlogging": 1972,
      "Re": 1973,
      "13": 1974,
      "imum": 1975,
      "================": 1976,
      "acken": 1977,
      "ĠPre": 1978,
      "grid": 1979,
      "sup": 1980,
      "DataFrame": 1981,
      "Ġinto": 1982,
      "rows": 1983,
      "chunk": 1984,
      "lic": 1985,
      "Warning": 1986,
      "Ġcolumn": 1987,
      "List": 1988,
      "The": 1989,
      "ithub": 1990,
      "www": 1991,
      "Face": 1992,
      "vels": 1993,
      "Ġ{}": 1994,
      "Ġdate": 1995,
      "main": 1996,
      "17": 1997,
      "cross": 1998,
      "kv": 1999,
      "dum": 2000,
      "most": 2001,
      "Ġencoding": 2002,
      "ĠPer": 2003,
      "ĠHugging": 2004,
      "_(": 2005,
      "rate": 2006,
      "Ġsort": 2007,
      "Str": 2008,
      "Ġmatrix": 2009,
      "parent": 2010,
      "eta": 2011,
      "positions": 2012,
      "Par": 2013,
      "ImageProcessor": 2014,
      "St": 2015,
      ")]": 2016,
      "fixture": 2017,
      "ĠCopy": 2018,
      "order": 2019,
      "Ġcode": 2020,
      "ditional": 2021,
      "Cache": 2022,
      "rescale": 2023,
      "backbone": 2024,
      "ĠImage": 2025,
      "quences": 2026,
      "atched": 2027,
      "late": 2028,
      "our": 2029,
      "github": 2030,
      "rames": 2031,
      "izing": 2032,
      "respon": 2033,
      "cre": 2034,
      "Ġ},": 2035,
      "Ġapplic": 2036,
      "Ġwhere": 2037,
      "ĠĠĠĠĠĠĠĠĠĠĠĠĠĠĠĠĠĠĠĠĠĠĠĠĠĠĠ": 2038,
      "rand": 2039,
      "Ġeps": 2040,
      "Ġlevel": 2041,
      "Ġgeneration": 2042,
      "Ġcurrent": 2043,
      "Classification": 2044,
      "EC": 2045,
      "ĠIS": 2046,
      "ĠOR": 2047,
      "ules": 2048,
      "Ġread": 2049,
      "ITH": 2050,
      "Ġthan": 2051,
      "non": 2052,
      "Ġav": 2053,
      "ĠVersion": 2054,
      "Decoder": 2055,
      "Mo": 2056,
      "Ġtry": 2057,
      "cessing": 2058,
      "other": 2059,
      "vided": 2060,
      "Ġapplicable": 2061,
      "ĠHuggingFace": 2062,
      "arrow": 2063,
      "utf": 2064,
      "mall": 2065,
      "Ġkernel": 2066,
      "huggingface": 2067,
      "gger": 2068,
      "initial": 2069,
      "prec": 2070,
      "Ġtw": 2071,
      "Ġ```": 2072,
      "Ġwriting": 2073,
      "greed": 2074,
      "ite": 2075,
      "wh": 2076,
      "LIC": 2077,
      "ear": 2078,
      "Ġprepare": 2079,
      "76": 2080,
      "IND": 2081,
      "Ġperiods": 2082,
      "ĠAll": 2083,
      "Ġmetric": 2084,
      "write": 2085,
      "Ġcross": 2086,
      "Ġ-------": 2087,
      "sions": 2088,
      "een": 2089,
      "imension": 2090,
      "Ġwas": 2091,
      "rc": 2092,
      "python": 2093,
      "itial": 2094,
      "older": 2095,
      "CausalLM": 2096,
      "terval": 2097,
      "ĠOF": 2098,
      "liance": 2099,
      "ĠCopyright": 2100,
      "Ġpart": 2101,
      "Ġmodels": 2102,
      "err": 2103,
      "ĠWAR": 2104,
      "Ġignore": 2105,
      "perts": 2106,
      "Ġscores": 2107,
      "Ġgiv": 2108,
      "izers": 2109,
      "apache": 2110,
      "50": 2111,
      "prompt": 2112,
      "Ġkeys": 2113,
      "ategy": 2114,
      "\");": 2115,
      "ENSE": 2116,
      "ating": 2117,
      "Ġpermis": 2118,
      "Ġgover": 2119,
      "Ġexpress": 2120,
      "Embed": 2121,
      "ĠUnless": 2122,
      "Ġlaw": 2123,
      "ĠTimestamp": 2124,
      "Ġsoftware": 2125,
      "pd": 2126,
      "ĠWITH": 2127,
      "ĠWARRAN": 2128,
      "license": 2129,
      "ĠBAS": 2130,
      "TIES": 2131,
      "Ġimplied": 2132,
      "Ġcompliance": 2133,
      "ĠApache": 2134,
      "Ġpermissions": 2135,
      "Ġlimitations": 2136,
      "ined": 2137,
      "Ġagreed": 2138,
      "ĠWARRANTIES": 2139,
      "Kwargs": 2140,
      "LICENSE": 2141,
      "ĠCONDI": 2142,
      "aT": 2143,
      "Ġpl": 2144,
      "fail": 2145,
      "groupby": 2146,
      "ĠKIND": 2147,
      "ĠWITHOUT": 2148,
      "erge": 2149,
      "ĠLicensed": 2150,
      "Ġgoverning": 2151,
      "licenses": 2152,
      "ĠCheck": 2153,
      "unittest": 2154,
      "ĠBASIS": 2155,
      "ĠCONDITIONS": 2156,
      "Union": 2157,
      "(*": 2158,
      "dt": 2159,
      "hub": 2160,
      "ice": 2161,
      "Ġwork": 2162,
      "][": 2163,
      "gmentation": 2164,
      "vis": 2165,
      "allclose": 2166,
      "}\")": 2167,
      "make": 2168,
      "Ġtop": 2169,
      "Ġprovided": 2170,
      "expand": 2171,
      "34": 2172,
      "table": 2173,
      "yle": 2174,
      "empty": 2175,
      "eger": 2176,
      "depth": 2177,
      "Ġspecial": 2178,
      "mt": 2179,
      "Ġcal": 2180,
      "Ġlib": 2181,
      "Ġfill": 2182,
      "Int": 2183,
      "ute": 2184,
      "zip": 2185,
      "Ġrun": 2186,
      "Ġmean": 2187,
      "ild": 2188,
      "slow": 2189,
      "probs": 2190,
      "Ġrel": 2191,
      "ipt": 2192,
      "hf": 2193,
      "ighb": 2194,
      "lex": 2195,
      "Ġsp": 2196,
      "ones": 2197,
      "imedelta": 2198,
      "peat": 2199,
      "apply": 2200,
      "transformer": 2201,
      "context": 2202,
      "masked": 2203,
      "pute": 2204,
      "75": 2205,
      "ãģ": 2206,
      "column": 2207,
      "decode": 2208,
      "Ġextra": 2209,
      "Ġreturned": 2210,
      "Ġboxes": 2211,
      "amba": 2212,
      "ctional": 2213,
      "Generation": 2214,
      "sort": 2215,
      "Ġintermediate": 2216,
      "Ġnd": 2217,
      "Ġsingle": 2218,
      "eature": 2219,
      "ced": 2220,
      "ressor": 2221,
      "save": 2222,
      "Ġent": 2223,
      "Ġproj": 2224,
      "unsqueeze": 2225,
      "ME": 2226,
      "top": 2227,
      "Ġlogger": 2228,
      "verage": 2229,
      "84": 2230,
      "logger": 2231,
      "fter": 2232,
      "](": 2233,
      "ĠInitial": 2234,
      "</": 2235,
      "Net": 2236,
      "uous": 2237,
      "ception": 2238,
      "mb": 2239,
      "ratio": 2240,
      "ens": 2241,
      "hannel": 2242,
      "Ġtyp": 2243,
      "Ġhasattr": 2244,
      "ref": 2245,
      "Ġgra": 2246,
      "Ġcls": 2247,
      "ĠMultiIndex": 2248,
      "Ġalso": 2249,
      "reshold": 2250,
      "Ġattentions": 2251,
      "celer": 2252,
      "ĠĠĠĠĠĠ": 2253,
      "ĠAl": 2254,
      "ðŁļ¨ðŁļ¨ðŁļ¨ðŁļ¨ðŁļ¨ðŁļ¨ðŁļ¨ðŁļ¨ðŁļ¨ðŁļ¨ðŁļ¨ðŁļ¨ðŁļ¨ðŁļ¨ðŁļ¨ðŁļ¨": 2255,
      "request": 2256,
      "Ġspecified": 2257,
      "dense": 2258,
      "=(": 2259,
      "pop": 2260,
      "tol": 2261,
      "96": 2262,
      "ian": 2263,
      "LayerNorm": 2264,
      "Ġhelp": 2265,
      "Ġallow": 2266,
      "ĠIt": 2267,
      "Ġitem": 2268,
      "mlp": 2269,
      "ities": 2270,
      "local": 2271,
      "dis": 2272,
      "Ġcod": 2273,
      "':": 2274,
      "rot": 2275,
      "CH": 2276,
      "play": 2277,
      "Ġsamples": 2278,
      "classification": 2279,
      "Ġembedding": 2280,
      "='": 2281,
      "Ġattribut": 2282,
      "red": 2283,
      "uster": 2284,
      "ound": 2285,
      "almost": 2286,
      "has": 2287,
      "oo": 2288,
      "ideo": 2289,
      "rout": 2290,
      "Ġfinal": 2291,
      "bert": 2292,
      "variance": 2293,
      "Ġndarray": 2294,
      "cessed": 2295,
      "resolution": 2296,
      "42": 2297,
      "iloc": 2298,
      "Ġencoded": 2299,
      "Ġcos": 2300,
      "implementation": 2301,
      "Ġafter": 2302,
      "Ġiter": 2303,
      "update": 2304,
      "ld": 2305,
      "Dimension": 2306,
      "stant": 2307,
      "55": 2308,
      "arge": 2309,
      "36": 2310,
      "ighbors": 2311,
      "queries": 2312,
      "former": 2313,
      "Ġmod": 2314,
      "_,": 2315,
      "hannelDimension": 2316,
      "transformers": 2317,
      "PT": 2318,
      "ins": 2319,
      "present": 2320,
      "Ġmasks": 2321,
      "Ġgiven": 2322,
      "Ġxp": 2323,
      "ForCausalLM": 2324,
      "ances": 2325,
      "fore": 2326,
      "move": 2327,
      "ackend": 2328,
      "ĠDe": 2329,
      "ynam": 2330,
      "Ġline": 2331,
      "Ġdropout": 2332,
      "lease": 2333,
      "Ġsupported": 2334,
      "Ġinstead": 2335,
      "ignore": 2336,
      "Ġresults": 2337,
      "Ġ16": 2338,
      "core": 2339,
      "mapping": 2340,
      "videos": 2341,
      "Ġ[-": 2342,
      "ake": 2343,
      "22": 2344,
      ")`,": 2345,
      "rap": 2346,
      "CA": 2347,
      "tests": 2348,
      "Ġprompt": 2349,
      "TED": 2350,
      ":]": 2351,
      "âĸ": 2352,
      "Ġbetw": 2353,
      "Ġbetween": 2354,
      "98": 2355,
      "Ġsplit": 2356,
      "ature": 2357,
      "verse": 2358,
      "missing": 2359,
      "Ġcompute": 2360,
      "gradient": 2361,
      "sq": 2362,
      "Ġoffset": 2363,
      "Ġ--": 2364,
      "Ġ15": 2365,
      "emma": 2366,
      "Ġdt": 2367,
      "egr": 2368,
      "Ġquant": 2369,
      "support": 2370,
      "cu": 2371,
      "tension": 2372,
      "06": 2373,
      "fast": 2374,
      "Ġnext": 2375,
      "global": 2376,
      "Ġvari": 2377,
      "causal": 2378,
      "Ġconv": 2379,
      "rector": 2380,
      "coef": 2381,
      "ĠĠĠĠĠĠĠĠĠ": 2382,
      "quires": 2383,
      "propert": 2384,
      "Ġscore": 2385,
      "Feature": 2386,
      "case": 2387,
      "atter": 2388,
      "full": 2389,
      "ient": 2390,
      "Ġthen": 2391,
      "math": 2392,
      "\"`": 2393,
      "78": 2394,
      "tes": 2395,
      "configuration": 2396,
      "atten": 2397,
      "Ġparameters": 2398,
      "2000": 2399,
      "aN": 2400,
      "Ġscale": 2401,
      "edge": 2402,
      "imal": 2403,
      "Ġcorrect": 2404,
      "ctionary": 2405,
      "hap": 2406,
      "lowing": 2407,
      "be": 2408,
      "Bert": 2409,
      "Ġkeep": 2410,
      "validation": 2411,
      "ormer": 2412,
      "ĠQwen": 2413,
      "Ġexample": 2414,
      "ĠCategorical": 2415,
      "mult": 2416,
      "Ġcorrespon": 2417,
      "urce": 2418,
      "Conditional": 2419,
      "ability": 2420,
      "ynamic": 2421,
      ".\",": 2422,
      "sklearn": 2423,
      "ba": 2424,
      "eed": 2425,
      "pair": 2426,
      "Ġarguments": 2427,
      "ĠSt": 2428,
      "steps": 2429,
      "Ġcheckpoint": 2430,
      "indexer": 2431,
      "seed": 2432,
      "encode": 2433,
      "Ġtwo": 2434,
      "iding": 2435,
      "Ġoper": 2436,
      "ĠAny": 2437,
      "reason": 2438,
      "Ġreserved": 2439,
      "ĠPeriod": 2440,
      "]])": 2441,
      "Ġcons": 2442,
      "uffer": 2443,
      "uture": 2444,
      "Ġ&": 2445,
      "Ġsee": 2446,
      "Ġval": 2447,
      "groups": 2448,
      "see": 2449,
      "LIP": 2450,
      "rectory": 2451,
      "memory": 2452,
      "open": 2453,
      "Ġraw": 2454,
      "contain": 2455,
      "lav": 2456,
      "Ġelement": 2457,
      "Ġengine": 2458,
      "experts": 2459,
      "rank": 2460,
      "Ġcontext": 2461,
      "ia": 2462,
      "WithP": 2463,
      "PEC": 2464,
      "Ġ:]": 2465,
      "Ġenum": 2466,
      "ĠRo": 2467,
      "extractor": 2468,
      "pool": 2469,
      "################": 2470,
      "olver": 2471,
      "cur": 2472,
      "Ġ...,": 2473,
      "functional": 2474,
      "Ġtmp": 2475,
      "Ġtests": 2476,
      "ĠNumber": 2477,
      "08": 2478,
      "Ġslice": 2479,
      "Input": 2480,
      "emb": 2481,
      "Ġrights": 2482,
      "formation": 2483,
      "ored": 2484,
      "ĠTo": 2485,
      "Ġsome": 2486,
      "ream": 2487,
      "lu": 2488,
      "ose": 2489,
      "Ġfol": 2490,
      "repr": 2491,
      "ey": 2492,
      "Ġclose": 2493,
      "Ġest": 2494,
      "Ġrout": 2495,
      "Ġtrunc": 2496,
      "activation": 2497,
      "argument": 2498,
      "ConditionalGeneration": 2499,
      "Res": 2500,
      "iguous": 2501,
      "EL": 2502,
      "ForConditionalGeneration": 2503,
      "Ġmissing": 2504,
      "Ġwindow": 2505,
      "used": 2506,
      "39": 2507,
      "\\\\": 2508,
      "html": 2509,
      "nly": 2510,
      "Ġtensors": 2511,
      "Ġpool": 2512,
      ")`": 2513,
      "ĠType": 2514,
      "cols": 2515,
      "Ġatol": 2516,
      "Ġmon": 2517,
      "ĠDatetime": 2518,
      "Ġhere": 2519,
      "2011": 2520,
      "ĠExamples": 2521,
      "bose": 2522,
      "unique": 2523,
      "ik": 2524,
      "Ġdes": 2525,
      "ested": 2526,
      "lected": 2527,
      "Ġrepresent": 2528,
      "iT": 2529,
      "Ġtransform": 2530,
      "cast": 2531,
      "timedelta": 2532,
      "Ġstates": 2533,
      "side": 2534,
      "Ġmemory": 2535,
      "Ġtyping": 2536,
      "dtypes": 2537,
      "ool": 2538,
      "37": 2539,
      "Ġwarnings": 2540,
      "Ġdel": 2541,
      "agg": 2542,
      "Ġsure": 2543,
      "UN": 2544,
      "ĠInc": 2545,
      "Moe": 2546,
      "estion": 2547,
      "uth": 2548,
      "Ġfix": 2549,
      "Ġinstance": 2550,
      "oid": 2551,
      "csv": 2552,
      ".*": 2553,
      "Ġts": 2554,
      "tim": 2555,
      "step": 2556,
      "']": 2557,
      "Case": 2558,
      "TypeError": 2559,
      "PP": 2560,
      "sd": 2561,
      "Ġsys": 2562,
      "inf": 2563,
      "uring": 2564,
      "Ġmode": 2565,
      "XPEC": 2566,
      "berta": 2567,
      "lama": 2568,
      "XPECTED": 2569,
      "quival": 2570,
      "Ġclassification": 2571,
      "Ġresidual": 2572,
      "modules": 2573,
      "hat": 2574,
      "Ġ>=": 2575,
      "Ġinformation": 2576,
      "Ġ32": 2577,
      "Ġargument": 2578,
      "erate": 2579,
      ")[": 2580,
      "eos": 2581,
      "Ġ\"--": 2582,
      "Ġsu": 2583,
      "pytorch": 2584,
      "Ġclasses": 2585,
      "Embedding": 2586,
      "Ġcustom": 2587,
      "liding": 2588,
      "Ġchunk": 2589,
      "Ġpair": 2590,
      "final": 2591,
      "clude": 2592,
      "parser": 2593,
      "cript": 2594,
      "Ġboth": 2595,
      "diff": 2596,
      "ĠJ": 2597,
      "itive": 2598,
      "ift": 2599,
      "Ġinitializer": 2600,
      "ĠĠĠĠĠĠĠĠĠĠ": 2601,
      "Ġ`[": 2602,
      "38": 2603,
      "Ġobjects": 2604,
      "Video": 2605,
      "]`,": 2606,
      "Ġcausal": 2607,
      "Ġrow": 2608,
      "alle": 2609,
      "Ġenumerate": 2610,
      "Ġglobal": 2611,
      "Ġop": 2612,
      "__)": 2613,
      "><": 2614,
      "ĠCan": 2615,
      "')": 2616,
      "ater": 2617,
      "dicted": 2618,
      "Ġequal": 2619,
      "mode": 2620,
      "olean": 2621,
      "istant": 2622,
      "ategory": 2623,
      "down": 2624,
      "Ġbox": 2625,
      "Ġ).": 2626,
      "TestCase": 2627,
      "07": 2628,
      "layernorm": 2629,
      "bos": 2630,
      "attern": 2631,
      "pyarrow": 2632,
      "PreTrainedConfig": 2633,
      "levels": 2634,
      "codes": 2635,
      "allel": 2636,
      "Ġalpha": 2637,
      "Fast": 2638,
      "classifier": 2639,
      "led": 2640,
      "dist": 2641,
      "Py": 2642,
      "`].": 2643,
      "istic": 2644,
      "\"}": 2645,
      "cause": 2646,
      "Ġens": 2647,
      "node": 2648,
      "={": 2649,
      "FI": 2650,
      "content": 2651,
      ")):": 2652,
      "ĠUnp": 2653,
      ".\\": 2654,
      "202": 2655,
      "abc": 2656,
      "Check": 2657,
      "Ġ,": 2658,
      "cum": 2659,
      "imil": 2660,
      "Ġbefore": 2661,
      "Ġteam": 2662,
      "Ġmultiple": 2663,
      "Ġbin": 2664,
      "Ġoptional": 2665,
      "Multi": 2666,
      "Ġthere": 2667,
      "results": 2668,
      "Ġhand": 2669,
      "original": 2670,
      "CT": 2671,
      "ĠUnpack": 2672,
      "imilar": 2673,
      "Conv": 2674,
      "48": 2675,
      "Ġhow": 2676,
      "var": 2677,
      "unding": 2678,
      "ĠTimedelta": 2679,
      "Ġbackbone": 2680,
      "crop": 2681,
      "28": 2682,
      "Base": 2683,
      "Ġ20": 2684,
      "color": 2685,
      "ector": 2686,
      "round": 2687,
      "Ġapp": 2688,
      "uples": 2689,
      "AT": 2690,
      "ush": 2691,
      "soft": 2692,
      "cv": 2693,
      "frames": 2694,
      "ODO": 2695,
      "ModelTester": 2696,
      "rt": 2697,
      "PPING": 2698,
      "term": 2699,
      "ĠBaseModelOutput": 2700,
      "atial": 2701,
      "stra": 2702,
      "lambda": 2703,
      "Ġstore": 2704,
      "speech": 2705,
      "ffic": 2706,
      "Ġsum": 2707,
      "Ġhigh": 2708,
      "celerator": 2709,
      "pipeline": 2710,
      "ĠCal": 2711,
      "numeric": 2712,
      "cpu": 2713,
      "Ġcent": 2714,
      "Ġfail": 2715,
      "Ġgenerated": 2716,
      "filter": 2717,
      "aise": 2718,
      "Qu": 2719,
      "Ġzip": 2720,
      "metadata": 2721,
      "2014": 2722,
      "pped": 2723,
      "Ġunittest": 2724,
      "Ġits": 2725,
      "ner": 2726,
      "MAPPING": 2727,
      "Ġeval": 2728,
      "create": 2729,
      "container": 2730,
      "sv": 2731,
      "YPE": 2732,
      "MS": 2733,
      "produ": 2734,
      "ister": 2735,
      "ithm": 2736,
      "ful": 2737,
      "alpha": 2738,
      "projection": 2739,
      "35": 2740,
      "scaling": 2741,
      "uplic": 2742,
      "arrays": 2743,
      "hen": 2744,
      "77": 2745,
      "gment": 2746,
      "can": 2747,
      "_.": 2748,
      "--------------------------------": 2749,
      "Ġcategories": 2750,
      "added": 2751,
      "property": 2752,
      "repeat": 2753,
      "Ġmetadata": 2754,
      "files": 2755,
      "initializer": 2756,
      "Ġdeta": 2757,
      "clf": 2758,
      "âĸģ": 2759,
      "Ġcontin": 2760,
      "Ġfunc": 2761,
      "ĠTODO": 2762,
      "Ġthem": 2763,
      "annotations": 2764,
      ">\",": 2765,
      "categories": 2766,
      "Ġpadded": 2767,
      "abs": 2768,
      "api": 2769,
      "mpty": 2770,
      "intercept": 2771,
      "amed": 2772,
      "...,": 2773,
      "oad": 2774,
      "TR": 2775,
      "swith": 2776,
      "opied": 2777,
      "Ġtotal": 2778,
      "datasets": 2779,
      "Ġcat": 2780,
      "folder": 2781,
      "Ġrequires": 2782,
      "ĠCopied": 2783,
      "oss": 2784,
      "orig": 2785,
      "net": 2786,
      "aded": 2787,
      "95": 2788,
      "Ġour": 2789,
      "uint": 2790,
      "Ġfmt": 2791,
      "Ġrename": 2792,
      "Vec": 2793,
      "itect": 2794,
      "ĠMo": 2795,
      "(_": 2796,
      "ĠTensor": 2797,
      "gelu": 2798,
      "Ġperform": 2799,
      ")],": 2800,
      "ĠPytester": 2801,
      "gb": 2802,
      "Ġ<=": 2803,
      "Ġna": 2804,
      "ĠInterval": 2805,
      "ĠPIL": 2806,
      "architect": 2807,
      "xp": 2808,
      "search": 2809,
      "lemented": 2810,
      "Regressor": 2811,
      "alf": 2812,
      "Ġparent": 2813,
      "man": 2814,
      "Not": 2815,
      "\"][": 2816,
      "['": 2817,
      "Group": 2818,
      "NaT": 2819,
      "ain": 2820,
      "ell": 2821,
      "lower": 2822,
      "Ġpipeline": 2823,
      "ĠEXPECTED": 2824,
      "LL": 2825,
      "regression": 2826,
      "Ġensure": 2827,
      "Ġcontaining": 2828,
      "Ġrescale": 2829,
      "warn": 2830,
      "stimator": 2831,
      "ummy": 2832,
      "sw": 2833,
      "ĠInd": 2834,
      "]))": 2835,
      "2013": 2836,
      "This": 2837,
      "\"]),": 2838,
      "dirname": 2839,
      "ron": 2840,
      "structor": 2841,
      "Ġrelative": 2842,
      "mat": 2843,
      "AA": 2844,
      "perm": 2845,
      "center": 2846,
      "Ġgrid": 2847,
      "(__": 2848,
      "Ġbecause": 2849,
      "egative": 2850,
      "ulary": 2851,
      "66": 2852,
      ">',": 2853,
      "ini": 2854,
      "cope": 2855,
      "Ġscaling": 2856,
      "antic": 2857,
      "Ġstride": 2858,
      "gor": 2859,
      "itle": 2860,
      "Ġlong": 2861,
      "dd": 2862,
      "Ġdrop": 2863,
      "kind": 2864,
      "Ġparams": 2865,
      "Ġsecond": 2866,
      "Sequence": 2867,
      "work": 2868,
      "rol": 2869,
      "proba": 2870,
      ")`):": 2871,
      "\"},": 2872,
      "template": 2873,
      "ĠOnly": 2874,
      "US": 2875,
      "ĠNaN": 2876,
      "day": 2877,
      "Ġ\"<": 2878,
      "ĠConfig": 2879,
      "ML": 2880,
      "27": 2881,
      "requen": 2882,
      "Ġ([": 2883,
      "Ġ_,": 2884,
      "Ġrtol": 2885,
      "Ġfactor": 2886,
      "short": 2887,
      "Torch": 2888,
      "Ġstd": 2889,
      "Dict": 2890,
      "lava": 2891,
      "checkpointing": 2892,
      "Ġ11": 2893,
      "Ġdictionary": 2894,
      "Ġ13": 2895,
      "Ġmult": 2896,
      "45": 2897,
      "fc": 2898,
      "IO": 2899,
      "sign": 2900,
      "ĠTypeError": 2901,
      "('": 2902,
      "Ġduring": 2903,
      "ĠTransformer": 2904,
      "Ġattribute": 2905,
      "\".": 2906,
      "contiguous": 2907,
      "OC": 2908,
      "Ġabo": 2909,
      "Ġmessage": 2910,
      "Ġchannel": 2911,
      "Ġnode": 2912,
      "part": 2913,
      "warnings": 2914,
      "Ġtask": 2915,
      "standard": 2916,
      "compat": 2917,
      "owns": 2918,
      "stride": 2919,
      "Ġvis": 2920,
      "polate": 2921,
      "aises": 2922,
      "redu": 2923,
      "concat": 2924,
      "hi": 2925,
      "Ġstep": 2926,
      "Ġmaximum": 2927,
      "entity": 2928,
      "09": 2929,
      "Ġseries": 2930,
      "Ġuser": 2931,
      "68": 2932,
      "ernal": 2933,
      "stage": 2934,
      "categorical": 2935,
      "Ġmasked": 2936,
      "PA": 2937,
      "lengths": 2938,
      "\\.": 2939,
      "tags": 2940,
      "Ġgenerate": 2941,
      "ĠAlso": 2942,
      "WithPast": 2943,
      "afe": 2944,
      "Ġbu": 2945,
      "Ġyield": 2946,
      "tree": 2947,
      "Ġinfer": 2948,
      "Ġempty": 2949,
      "thing": 2950,
      "Ġlambda": 2951,
      "Is": 2952,
      "asarray": 2953,
      "dif": 2954,
      "prox": 2955,
      "31": 2956,
      "Ġlocal": 2957,
      "apter": 2958,
      "architecture": 2959,
      "Qwen": 2960,
      "TO": 2961,
      "cho": 2962,
      "Ġwithout": 2963,
      "Path": 2964,
      "Mask": 2965,
      "Ġprocessing": 2966,
      "[:-": 2967,
      "repo": 2968,
      "ĠIndices": 2969,
      "select": 2970,
      "flash": 2971,
      "Ġexist": 2972,
      "precated": 2973,
      "Former": 2974,
      "single": 2975,
      "ECK": 2976,
      "gt": 2977,
      "Ġcollection": 2978,
      "={\"": 2979,
      "bit": 2980,
      "fp": 2981,
      "extract": 2982,
      "Ġdon": 2983,
      "Ġrope": 2984,
      "reak": 2985,
      "Ġopen": 2986,
      "multiple": 2987,
      "Ġavoid": 2988,
      "->": 2989,
      "thw": 2990,
      "Ġcho": 2991,
      "usters": 2992,
      "ikit": 2993,
      "State": 2994,
      "ĠData": 2995,
      "CHECK": 2996,
      "onic": 2997,
      "vit": 2998,
      "sequences": 2999,
      "cel": 3000,
      "odal": 3001,
      "strategy": 3002,
      "Ġtransformer": 3003,
      "Co": 3004,
      "xmath": 3005,
      "Ġcoding": 3006,
      "td": 3007,
      "otonic": 3008,
      "44": 3009,
      "ĠPreTrained": 3010,
      "LE": 3011,
      "Ġtable": 3012,
      "gram": 3013,
      "padded": 3014,
      "stdout": 3015,
      "ĠAutoTokenizer": 3016,
      "Ġ00": 3017,
      "bu": 3018,
      "ERS": 3019,
      "nown": 3020,
      "Ġeos": 3021,
      "Ġorig": 3022,
      "Ġclosed": 3023,
      "DE": 3024,
      "bbox": 3025,
      "Ġvector": 3026,
      "_)": 3027,
      "iny": 3028,
      "metrics": 3029,
      "Transformer": 3030,
      "lang": 3031,
      "Ġtypes": 3032,
      "message": 3033,
      "Ġ102": 3034,
      "polation": 3035,
      "ely": 3036,
      "Ġcast": 3037,
      "Ġlinear": 3038,
      "infer": 3039,
      "]})": 3040,
      "Ġtra": 3041,
      "ually": 3042,
      "Ġdec": 3043,
      "Ġ'<": 3044,
      "cul": 3045,
      "ChannelDimension": 3046,
      "ĠCom": 3047,
      "Ġthey": 3048,
      "Ġhf": 3049,
      "[...,": 3050,
      "Ġim": 3051,
      "ĠSam": 3052,
      "ixed": 3053,
      "words": 3054,
      "Ġfiles": 3055,
      "Imp": 3056,
      "Ġwant": 3057,
      "Ġstack": 3058,
      "her": 3059,
      "ĠNote": 3060,
      "namespace": 3061,
      "ux": 3062,
      "Ġsequences": 3063,
      "wering": 3064,
      "ote": 3065,
      "preprocess": 3066,
      "26": 3067,
      "peed": 3068,
      "where": 3069,
      "Ġgrouped": 3070,
      "resample": 3071,
      "ĠBatch": 3072,
      "large": 3073,
      "rep": 3074,
      "bins": 3075,
      "odes": 3076,
      "ways": 3077,
      "riter": 3078,
      "Ġarrays": 3079,
      "Ġfull": 3080,
      "comm": 3081,
      "ĠDatetimeIndex": 3082,
      "Ġsmall": 3083,
      "Ġfollowing": 3084,
      "ses": 3085,
      "Ġplot": 3086,
      "iece": 3087,
      "jobs": 3088,
      "matrix": 3089,
      "estimators": 3090,
      "dump": 3091,
      "channel": 3092,
      "quent": 3093,
      "plt": 3094,
      "tolist": 3095,
      "ilon": 3096,
      "strip": 3097,
      "ĠĠĠĠĠĠĠĠĠĠĠĠ": 3098,
      "Ġchange": 3099,
      "engine": 3100,
      "ĠDef": 3101,
      "VL": 3102,
      "ugh": 3103,
      "radient": 3104,
      "Ġarchitecture": 3105,
      "dec": 3106,
      "ĠTYPE": 3107,
      "Ġcontinue": 3108,
      "internal": 3109,
      "ĠĠĠĠĠĠĠĠĠĠĠĠĠ": 3110,
      ")))": 3111,
      "CHECKING": 3112,
      "Ġpoints": 3113,
      "Ġindic": 3114,
      "div": 3115,
      "Ġ201": 3116,
      "ike": 3117,
      "Ġconverted": 3118,
      "ssion": 3119,
      "Ġchannels": 3120,
      "mn": 3121,
      "Ġbeha": 3122,
      "Ġold": 3123,
      "Ġdefined": 3124,
      "RE": 3125,
      "Ġloc": 3126,
      "relative": 3127,
      "Ġ14": 3128,
      "Ġpred": 3129,
      "MP": 3130,
      "gate": 3131,
      "eager": 3132,
      "lap": 3133,
      "ready": 3134,
      "scalar": 3135,
      "mary": 3136,
      "rotary": 3137,
      "predictions": 3138,
      "Ġwhile": 3139,
      "ĠInitialize": 3140,
      "hapes": 3141,
      "parameter": 3142,
      "BC": 3143,
      "lr": 3144,
      "Ġdocument": 3145,
      "Ġsrc": 3146,
      "Ġsegmentation": 3147,
      "mantic": 3148,
      "Ġheads": 3149,
      "conf": 3150,
      "Ġcannot": 3151,
      "Ġaverage": 3152,
      "unt": 3153,
      "Ġplt": 3154,
      "Ġprocessed": 3155,
      "Ġresample": 3156,
      "Ġ30": 3157,
      "Ġfield": 3158,
      "Ġfound": 3159,
      "]},": 3160,
      "lem": 3161,
      "ĠStr": 3162,
      "segmentation": 3163,
      "][\"": 3164,
      "CON": 3165,
      "Me": 3166,
      "Ġfast": 3167,
      "Ġversionadded": 3168,
      "Ġspecify": 3169,
      "Random": 3170,
      "Ġerr": 3171,
      "assertIs": 3172,
      "Ġclassifier": 3173,
      "rough": 3174,
      "ffect": 3175,
      "compute": 3176,
      "ble": 3177,
      "Ġdepth": 3178,
      "istent": 3179,
      "Col": 3180,
      "ping": 3181,
      "flatten": 3182,
      "img": 3183,
      "ucke": 3184,
      "Ġ*,": 3185,
      "ĠCallable": 3186,
      "assertList": 3187,
      "Ġ'âĸģ": 3188,
      "category": 3189,
      "ram": 3190,
      "validate": 3191,
      "Ġcomputed": 3192,
      "58": 3193,
      "Ġadded": 3194,
      "ĠAutoModel": 3195,
      "offsets": 3196,
      "CLIP": 3197,
      "Ġbos": 3198,
      "pack": 3199,
      "Ġremove": 3200,
      "ODEL": 3201,
      "hand": 3202,
      "ics": 3203,
      "issues": 3204,
      "dims": 3205,
      "report": 3206,
      "Ġnumeric": 3207,
      "assertListEqual": 3208,
      "language": 3209,
      "ino": 3210,
      "ransformersKwargs": 3211,
      "neighbors": 3212,
      "29": 3213,
      "lementation": 3214,
      "go": 3215,
      "Ġinv": 3216,
      "Ġdetails": 3217,
      "dates": 3218,
      "CV": 3219,
      "Timestamp": 3220,
      "Ġthese": 3221,
      "vals": 3222,
      "Ġpost": 3223,
      "59": 3224,
      "ten": 3225,
      "Ġgo": 3226,
      "flow": 3227,
      "IC": 3228,
      "Per": 3229,
      "mm": 3230,
      "Ġ\"_": 3231,
      "imodal": 3232,
      "stem": 3233,
      "clip": 3234,
      "Ġ18": 3235,
      "Ġfilter": 3236,
      "Ġrepo": 3237,
      "``.": 3238,
      "inv": 3239,
      "TS": 3240,
      "ris": 3241,
      "sentence": 3242,
      "Regression": 3243,
      "What": 3244,
      "Ġjson": 3245,
      "ĠSequence": 3246,
      "Ġalready": 3247,
      "ĠRead": 3248,
      "ordin": 3249,
      "Ġdoesn": 3250,
      "gorithm": 3251,
      "TA": 3252,
      "oral": 3253,
      "Ġposs": 3254,
      "Ġpredictions": 3255,
      "fficient": 3256,
      "shared": 3257,
      "ipy": 3258,
      "VisionConfig": 3259,
      "Ġprojection": 3260,
      "PI": 3261,
      "merge": 3262,
      "Ġvalidate": 3263,
      "Loss": 3264,
      "Ġdirect": 3265,
      "Gemma": 3266,
      "]).": 3267,
      "Ġsave": 3268,
      "style": 3269,
      "Ġman": 3270,
      "Ġinteger": 3271,
      "ĠPyTorch": 3272,
      "backend": 3273,
      "Resampling": 3274,
      "Ġmain": 3275,
      "Ġindexer": 3276,
      "You": 3277,
      "Ġrot": 3278,
      "(\\": 3279,
      "Ġword": 3280,
      "period": 3281,
      "structure": 3282,
      "Ġratio": 3283,
      "rary": 3284,
      "Ġmark": 3285,
      "inference": 3286,
      "dev": 3287,
      "roll": 3288,
      "poch": 3289,
      "Ġoverr": 3290,
      "runpytest": 3291,
      "vec": 3292,
      "2008": 3293,
      "here": 3294,
      "Ġreturns": 3295,
      "maps": 3296,
      "Ġ%%": 3297,
      "Ġchar": 3298,
      "task": 3299,
      "vious": 3300,
      "Ġresized": 3301,
      "makepy": 3302,
      "]\",": 3303,
      "Ġauto": 3304,
      "Ġimplementation": 3305,
      "Ġpredicted": 3306,
      "Ġcorresponding": 3307,
      "Estimator": 3308,
      "puted": 3309,
      "llama": 3310,
      "101": 3311,
      "Speech": 3312,
      "ĠMask": 3313,
      "Ġjust": 3314,
      "istr": 3315,
      "ior": 3316,
      "penden": 3317,
      "Ġactivation": 3318,
      "Ġerrors": 3319,
      "SV": 3320,
      "ĠPath": 3321,
      "cc": 3322,
      "second": 3323,
      "chat": 3324,
      "csr": 3325,
      "Ġprediction": 3326,
      "Data": 3327,
      "axes": 3328,
      "char": 3329,
      "tuples": 3330,
      "threshold": 3331,
      "sdpa": 3332,
      "Detr": 3333,
      "det": 3334,
      "makepyfile": 3335,
      "Ġdays": 3336,
      "Ġcoef": 3337,
      "tribut": 3338,
      "Ġstream": 3339,
      "register": 3340,
      "Ġverbose": 3341,
      "ogle": 3342,
      "Ġmath": 3343,
      "conds": 3344,
      "Ġstrings": 3345,
      "ĠWhen": 3346,
      "40": 3347,
      "two": 3348,
      "fct": 3349,
      "Ġconf": 3350,
      "Ġcollections": 3351,
      "Ġcolor": 3352,
      ":`~": 3353,
      "Ġcrop": 3354,
      "cording": 3355,
      "Ġcontrol": 3356,
      "src": 3357,
      "ffn": 3358,
      "Ġbehavi": 3359,
      "Ġreplace": 3360,
      "Arg": 3361,
      "Ġdatasets": 3362,
      "String": 3363,
      "46": 3364,
      "util": 3365,
      "Ġtheir": 3366,
      "Ġconcat": 3367,
      "tensionArray": 3368,
      "ndim": 3369,
      "Ġdist": 3370,
      "Ġdown": 3371,
      "stat": 3372,
      "Ġbased": 3373,
      "]`": 3374,
      "Ġmethods": 3375,
      "number": 3376,
      "Omn": 3377,
      "Ġuses": 3378,
      "Ġtrainer": 3379,
      "Ġsimilar": 3380,
      "Ġordered": 3381,
      "static": 3382,
      "ĠID": 3383,
      "prediction": 3384,
      "Ġaxes": 3385,
      "icro": 3386,
      "arm": 3387,
      "Ġselected": 3388,
      "option": 3389,
      "kw": 3390,
      "Ġlike": 3391,
      "ty": 3392,
      "compile": 3393,
      "Ġ[`~": 3394,
      "current": 3395,
      "Ġ\"__": 3396,
      "Ġaccept": 3397,
      "yler": 3398,
      "Ġ()": 3399,
      "mul": 3400,
      "small": 3401,
      "straint": 3402,
      "ĠGeneration": 3403,
      "Ġstyle": 3404,
      "72": 3405,
      "ED": 3406,
      "Ġmerge": 3407,
      "examples": 3408,
      "Ġsorted": 3409,
      "Ġtag": 3410,
      "ensional": 3411,
      ")])": 3412,
      "Head": 3413,
      "ĠRes": 3414,
      "Ġbest": 3415,
      "Up": 3416,
      "Ġstandard": 3417,
      "Ġverify": 3418,
      "Ġsign": 3419,
      "Ġalways": 3420,
      "sampling": 3421,
      "ImageResampling": 3422,
      "[[": 3423,
      "uni": 3424,
      "lots": 3425,
      "Ġurl": 3426,
      "Ġcontains": 3427,
      "]`):": 3428,
      "buffer": 3429,
      "tokenization": 3430,
      "docs": 3431,
      "}{": 3432,
      "abled": 3433,
      "\"`):": 3434,
      "precision": 3435,
      "annotation": 3436,
      "Ne": 3437,
      "Ġmap": 3438,
      "supports": 3439,
      "bsz": 3440,
      "Ġsampling": 3441,
      "ĠTrain": 3442,
      "ViT": 3443,
      "ry": 3444,
      "tokenizers": 3445,
      "Ro": 3446,
      "iate": 3447,
      "Ġprefix": 3448,
      "permute": 3449,
      "lv": 3450,
      "Ġzero": 3451,
      "Ġinstall": 3452,
      "spect": 3453,
      "\"]:": 3454,
      "Ġlines": 3455,
      "Ġslow": 3456,
      "Ġtd": 3457,
      "lier": 3458,
      "facebook": 3459,
      "timestamp": 3460,
      "Ġfl": 3461,
      "gex": 3462,
      "fnmatch": 3463,
      "integer": 3464,
      "Ġannotations": 3465,
      "iglip": 3466,
      "ven": 3467,
      "Ġaccording": 3468,
      "nested": 3469,
      "Ġ64": 3470,
      "Ġwo": 3471,
      "Ġpatches": 3472,
      "eeded": 3473,
      "trunc": 3474,
      "ĠAttention": 3475,
      "Ġreason": 3476,
      "gen": 3477,
      "Extra": 3478,
      "cuda": 3479,
      "FN": 3480,
      "uct": 3481,
      "ilities": 3482,
      "Ġsetting": 3483,
      "2016": 3484,
      "SequenceClassification": 3485,
      "88": 3486,
      "tiny": 3487,
      "]\")": 3488,
      "cies": 3489,
      "boolean": 3490,
      "iris": 3491,
      "Ġcompat": 3492,
      "Ġsuch": 3493,
      "ider": 3494,
      "Ġvocabulary": 3495,
      ")}": 3496,
      "ĠArray": 3497,
      "Ġoptim": 3498,
      "MSNorm": 3499,
      "Ġar": 3500,
      "79": 3501,
      "qa": 3502,
      "ForSequenceClassification": 3503,
      "plits": 3504,
      "ĠRoPE": 3505,
      "best": 3506,
      "periods": 3507,
      "Ġignored": 3508,
      "tx": 3509,
      "Ġgroups": 3510,
      "Ġinference": 3511,
      "Ġkind": 3512,
      "Ġsource": 3513,
      "next": 3514,
      "quivalent": 3515,
      "Interval": 3516,
      "``,": 3517,
      "cription": 3518,
      "Ġpossible": 3519,
      "title": 3520,
      "Ġthreshold": 3521,
      "Ġlevels": 3522,
      "XT": 3523,
      "ody": 3524,
      "take": 3525,
      "dot": 3526,
      "Ġconn": 3527,
      "Ġwould": 3528,
      "TesterMixin": 3529,
      "sqrt": 3530,
      "ving": 3531,
      "\")],": 3532,
      "iles": 3533,
      "solver": 3534,
      "Ġbreak": 3535,
      "computed": 3536,
      "Implemented": 3537,
      "ables": 3538,
      "Ġ\".": 3539,
      "detr": 3540,
      "source": 3541,
      "sliding": 3542,
      "imes": 3543,
      "plotlib": 3544,
      "startswith": 3545,
      "Ġblocks": 3546,
      "Ġcenter": 3547,
      "orage": 3548,
      "Ġbatched": 3549,
      "ernels": 3550,
      "just": 3551,
      "Ġpositive": 3552,
      "plicit": 3553,
      "errors": 3554,
      "Ġvisual": 3555,
      "RMSNorm": 3556,
      "ĠEn": 3557,
      "ped": 3558,
      "Ġcv": 3559,
      "Ġavailable": 3560,
      "Ġfind": 3561,
      "65": 3562,
      "Log": 3563,
      "ĠToken": 3564,
      "Ġmapping": 3565,
      "23": 3566,
      "Ġdummy": 3567,
      "Ġnormalize": 3568,
      "ird": 3569,
      "PU": 3570,
      "usion": 3571,
      "ĠInitializing": 3572,
      "ĠOne": 3573,
      "very": 3574,
      "zy": 3575,
      "Ġtruncation": 3576,
      "49": 3577,
      "Ġdirectly": 3578,
      "bytes": 3579,
      "wrap": 3580,
      "Ġwhether": 3581,
      "Ġ256": 3582,
      "ences": 3583,
      "tmpdirname": 3584,
      "Ġtrans": 3585,
      "ume": 3586,
      "ttribut": 3587,
      "Ġfrequen": 3588,
      "print": 3589,
      "uffle": 3590,
      "Llama": 3591,
      "libs": 3592,
      "Ġtempfile": 3593,
      "invalid": 3594,
      "conn": 3595,
      "=\"\"\"": 3596,
      "FOR": 3597,
      "sin": 3598,
      "ĠQu": 3599,
      "Ġ\"\\": 3600,
      "Ġactual": 3601,
      "ET": 3602,
      "ĠSparse": 3603,
      "Ġcur": 3604,
      "ugin": 3605,
      "rgb": 3606,
      "leg": 3607,
      "bucke": 3608,
      "Ġ{'": 3609,
      "Ġagg": 3610,
      "pattern": 3611,
      "Ġrepr": 3612,
      "cluster": 3613,
      "Ġmat": 3614,
      "duplic": 3615,
      "xx": 3616,
      "Ġprecision": 3617,
      "anged": 3618,
      "recor": 3619,
      "Ġ200": 3620,
      "Ġprocess": 3621,
      "User": 3622,
      "encoded": 3623,
      "Ġ\"\"": 3624,
      "clusters": 3625,
      "Ġcluster": 3626,
      "lator": 3627,
      "mem": 3628,
      "session": 3629,
      "Ġelements": 3630,
      "Ġtimedelta": 3631,
      "Omni": 3632,
      "TransformersKwargs": 3633,
      "routing": 3634,
      "dummy": 3635,
      "Parameter": 3636,
      "extension": 3637,
      "essages": 3638,
      "ropy": 3639,
      "Ġ[(": 3640,
      "Ġbeen": 3641,
      "ĠGener": 3642,
      "accelerator": 3643,
      "lev": 3644,
      "constructor": 3645,
      "Audio": 3646,
      "Ġsetup": 3647,
      "RandomState": 3648,
      "_[": 3649,
      "eep": 3650,
      "abilities": 3651,
      ".*.": 3652,
      "PR": 3653,
      "Ġpresent": 3654,
      "Ġ1000": 3655,
      "Ġotherwise": 3656,
      "ĠSet": 3657,
      "modal": 3658,
      "Ġregression": 3659,
      "ignment": 3660,
      "fla": 3661,
      "uffix": 3662,
      "Ans": 3663,
      "OS": 3664,
      "mote": 3665,
      "visual": 3666,
      "Ġsince": 3667,
      "uide": 3668,
      "ĠList": 3669,
      "ending": 3670,
      "unds": 3671,
      "cons": 3672,
      ">`": 3673,
      "hash": 3674,
      "ĠUse": 3675,
      "Ġcre": 3676,
      "Ġaut": 3677,
      "termin": 3678,
      "ampler": 3679,
      "Ġunique": 3680,
      "ĠĠĠĠĠĠĠĠĠĠĠĠĠĠĠĠĠĠĠĠĠĠĠĠĠĠĠĠĠĠĠ": 3681,
      "allow": 3682,
      "aa": 3683,
      "Ġinplace": 3684,
      "adapter": 3685,
      "\")),": 3686,
      "ĠLab": 3687,
      "Ġcontent": 3688,
      "Ġoption": 3689,
      "Ġshow": 3690,
      "Ġskipna": 3691,
      "Dis": 3692,
      "dimension": 3693,
      "egration": 3694,
      "sian": 3695,
      "processed": 3696,
      "ðŁļ¨ðŁļ¨ðŁļ¨ðŁļ¨ðŁļ¨ðŁļ¨ðŁļ¨ðŁļ¨ðŁļ¨ðŁļ¨ðŁļ¨ðŁļ¨ðŁļ¨ðŁļ¨ðŁļ¨ðŁļ¨ðŁļ¨ðŁļ¨ðŁļ¨ðŁļ¨ðŁļ¨ðŁļ¨ðŁļ¨ðŁļ¨ðŁļ¨ðŁļ¨ðŁļ¨ðŁļ¨ðŁļ¨ðŁļ¨ðŁļ¨ðŁļ¨": 3697,
      "Ġperiod": 3698,
      "OT": 3699,
      "Ġclean": 3700,
      "ison": 3701,
      "Ġnan": 3702,
      "Ġredu": 3703,
      "ĠPro": 3704,
      "Ġapplied": 3705,
      "nal": 3706,
      "ystem": 3707,
      "bl": 3708,
      "ĠNA": 3709,
      "Ġmetrics": 3710,
      "ier": 3711,
      "andid": 3712,
      "Ġdefine": 3713,
      "omatic": 3714,
      ")(": 3715,
      "egin": 3716,
      "Ġwords": 3717,
      "randn": 3718,
      "Ġneeded": 3719,
      "Ġspeech": 3720,
      "Ġexact": 3721,
      "http": 3722,
      "MES": 3723,
      "Ġthrough": 3724,
      "graph": 3725,
      "Ġpartial": 3726,
      "asing": 3727,
      "ĠCS": 3728,
      "space": 3729,
      "ower": 3730,
      "21": 3731,
      "Ġevalu": 3732,
      "ImplementedError": 3733,
      "Ġcodes": 3734,
      "Det": 3735,
      "interface": 3736,
      "ĠAd": 3737,
      "options": 3738,
      "downs": 3739,
      "Ġinher": 3740,
      "eek": 3741,
      "Answering": 3742,
      "amma": 3743,
      "estionAnswering": 3744,
      "null": 3745,
      "remove": 3746,
      "Ġcallable": 3747,
      "VV": 3748,
      "_{": 3749,
      "Ġcomputing": 3750,
      "Ġ19": 3751,
      "excel": 3752,
      "]]]": 3753,
      "shift": 3754,
      "Ġdti": 3755,
      "mgr": 3756,
      "aussian": 3757,
      "Ġprevious": 3758,
      "Ġrequests": 3759,
      "sorted": 3760,
      "ĠTeam": 3761,
      "osition": 3762,
      "layout": 3763,
      "paces": 3764,
      "Ġcomm": 3765,
      "ci": 3766,
      "tick": 3767,
      "heet": 3768,
      "Ġ\"*": 3769,
      "assistant": 3770,
      "Ġcalcul": 3771,
      "bot": 3772,
      "Ġsolver": 3773,
      "Ġproper": 3774,
      "2012": 3775,
      "Ġworks": 3776,
      "FUN": 3777,
      "cos": 3778,
      "mble": 3779,
      "Ġrouter": 3780,
      "80": 3781,
      "AD": 3782,
      "dated": 3783,
      "Ġday": 3784,
      "Ġremo": 3785,
      "Ġtol": 3786,
      "Ġ((": 3787,
      "ĠWav": 3788,
      "57": 3789,
      "Ġdocstring": 3790,
      "Ġreport": 3791,
      "ordinates": 3792,
      "high": 3793,
      "Ġ```\"\"\"": 3794,
      "FUNC": 3795,
      "generated": 3796,
      "Auto": 3797,
      "AL": 3798,
      "Categorical": 3799,
      "Ġexamples": 3800,
      "ĠACT": 3801,
      "ĠCh": 3802,
      "question": 3803,
      "efore": 3804,
      "Ġinstant": 3805,
      "iver": 3806,
      "Ġmodeling": 3807,
      "ĠChannelDimension": 3808,
      ")`.": 3809,
      "Ġpretrained": 3810,
      "Ġscalar": 3811,
      "Ġgradient": 3812,
      "intro": 3813,
      "ĠNaT": 3814,
      "header": 3815,
      "Block": 3816,
      "deep": 3817,
      "paths": 3818,
      "optim": 3819,
      "ĠZ": 3820,
      "arison": 3821,
      "Ġgot": 3822,
      "google": 3823,
      "trie": 3824,
      ")).": 3825,
      "erg": 3826,
      "Ġ\",": 3827,
      "store": 3828,
      "Ġcalled": 3829,
      "average": 3830,
      "Ġdeprecated": 3831,
      "__.__": 3832,
      "plan": 3833,
      "Exception": 3834,
      "seek": 3835,
      "ello": 3836,
      "ĠLog": 3837,
      "Seg": 3838,
      "keypatch": 3839,
      "...": 3840,
      "Ġmeans": 3841,
      "ĠCol": 3842,
      "Ġalong": 3843,
      "2017": 3844,
      "custom": 3845,
      "orary": 3846,
      "decision": 3847,
      "CL": 3848,
      "lens": 3849,
      "Ġupdate": 3850,
      "47": 3851,
      "Ġpooled": 3852,
      "Ġdimensions": 3853,
      "Ġbehavior": 3854,
      "reindex": 3855,
      "Ġmy": 3856,
      "================================": 3857,
      "Ġbinary": 3858,
      "]):": 3859,
      "^^": 3860,
      "year": 3861,
      "Ġeffect": 3862,
      "ĠException": 3863,
      "total": 3864,
      "qkv": 3865,
      "|>": 3866,
      "Ġ17": 3867,
      "ĠGemma": 3868,
      "ren": 3869,
      "enc": 3870,
      "ctest": 3871,
      "olute": 3872,
      "FeatureExtra": 3873,
      "AI": 3874,
      "__.": 3875,
      "ively": 3876,
      "skipTest": 3877,
      "creasing": 3878,
      "router": 3879,
      "\"]]": 3880,
      "Opt": 3881,
      "Ġlarge": 3882,
      "TextConfig": 3883,
      "Ġter": 3884,
      "diction": 3885,
      "Ġstage": 3886,
      "128": 3887,
      "ponse": 3888,
      "ĠConvert": 3889,
      "mel": 3890,
      "lp": 3891,
      "Ġmight": 3892,
      "Ġstrict": 3893,
      "lossary": 3894,
      "binary": 3895,
      "Object": 3896,
      "ĠPad": 3897,
      "hello": 3898,
      "Size": 3899,
      "sing": 3900,
      "Ġqueries": 3901,
      "Ġquestion": 3902,
      "Raises": 3903,
      "before": 3904,
      "Ġtree": 3905,
      "istral": 3906,
      "}\\": 3907,
      "Ġ50": 3908,
      "Ġselect": 3909,
      "hisper": 3910,
      "Mon": 3911,
      "gpt": 3912,
      "Ġrows": 3913,
      "tures": 3914,
      "example": 3915,
      "(\"--": 3916,
      "ĠExample": 3917,
      "NAMES": 3918,
      "Dropout": 3919,
      "ists": 3920,
      "ModuleList": 3921,
      "none": 3922,
      "ency": 3923,
      "matches": 3924,
      "By": 3925,
      "bile": 3926,
      "ĠCompute": 3927,
      "Ġdocumentation": 3928,
      "No": 3929,
      "segment": 3930,
      "CE": 3931,
      "Ġmost": 3932,
      "partial": 3933,
      "Di": 3934,
      "cut": 3935,
      "sen": 3936,
      "Ġprobability": 3937,
      "Ġbeing": 3938,
      "ctions": 3939,
      "ibility": 3940,
      "Ġfloats": 3941,
      "Ġ\"-": 3942,
      "Ġcorrectly": 3943,
      "Ġframes": 3944,
      "fig": 3945,
      "Ġpassing": 3946,
      "times": 3947,
      "MultiIndex": 3948,
      "Ġed": 3949,
      "plus": 3950,
      "longest": 3951,
      "Ġtags": 3952,
      "xfail": 3953,
      "constant": 3954,
      "Ġcases": 3955,
      "\"\\": 3956,
      "epoch": 3957,
      "Ġspatial": 3958,
      "sep": 3959,
      "erges": 3960,
      "Ġentity": 3961,
      "Ġhandle": 3962,
      "Ġfla": 3963,
      "Ġdevi": 3964,
      "atrices": 3965,
      "sql": 3966,
      "Key": 3967,
      "ĠAs": 3968,
      "Ġmodif": 3969,
      "feed": 3970,
      "89": 3971,
      "cura": 3972,
      "87": 3973,
      "ili": 3974,
      "rms": 3975,
      "idge": 3976,
      "display": 3977,
      "]\"": 3978,
      "Ġsq": 3979,
      "Ġdefin": 3980,
      "counts": 3981,
      ",),": 3982,
      "Ġexpect": 3983,
      "Ġyour": 3984,
      "Ġresize": 3985,
      "amps": 3986,
      "xl": 3987,
      "orld": 3988,
      "256": 3989,
      "Any": 3990,
      "ops": 3991,
      "viron": 3992,
      "rolling": 3993,
      "ols": 3994,
      "egers": 3995,
      "Batch": 3996,
      "choices": 3997,
      "ilt": 3998,
      "Ġfilename": 3999,
      "MLP": 4000,
      "Id": 4001,
      "coco": 4002,
      "({": 4003,
      "La": 4004,
      "Ġfp": 4005,
      "parallel": 4006,
      "win": 4007,
      "alty": 4008,
      "__}": 4009,
      "via": 4010,
      "Ġprodu": 4011,
      "Datetime": 4012,
      "DecoderLayer": 4013,
      "86": 4014,
      "moe": 4015,
      "xml": 4016,
      "Ġ25": 4017,
      "Ġsupports": 4018,
      "PY": 4019,
      "apture": 4020,
      "curacy": 4021,
      "sm": 4022,
      "Ġinclude": 4023,
      "ather": 4024,
      "codebook": 4025,
      "opping": 4026,
      "Ġdtypes": 4027,
      "ĠAc": 4028,
      "Ġabs": 4029,
      "complex": 4030,
      "Ġdet": 4031,
      "tok": 4032,
      "MODEL": 4033,
      "Ġnegative": 4034,
      "setitem": 4035,
      "ob": 4036,
      "bf": 4037,
      "piece": 4038,
      "Ġ39": 4039,
      "ĠBert": 4040,
      "ĠIDs": 4041,
      "Like": 4042,
      "lector": 4043,
      "Scal": 4044,
      "onent": 4045,
      "pytester": 4046,
      "Ġiris": 4047,
      "Ġcond": 4048,
      "download": 4049,
      "Ġparse": 4050,
      "ling": 4051,
      "micro": 4052,
      "Cross": 4053,
      "lete": 4054,
      "FA": 4055,
      "ceiver": 4056,
      "ĠString": 4057,
      "ky": 4058,
      "ves": 4059,
      "hable": 4060,
      "ĠPlease": 4061,
      "Ġ512": 4062,
      "uthors": 4063,
      "TEXT": 4064,
      "uniform": 4065,
      "push": 4066,
      "reduce": 4067,
      "remote": 4068,
      "Ġdiff": 4069,
      "Ġconsider": 4070,
      "sting": 4071,
      "Instance": 4072,
      "Ġneeds": 4073,
      "plots": 4074,
      "Inter": 4075,
      "*\",": 4076,
      "reference": 4077,
      "MAG": 4078,
      "hist": 4079,
      "Ġam": 4080,
      "job": 4081,
      "UL": 4082,
      "distance": 4083,
      "Ġextract": 4084,
      "Ġoperator": 4085,
      "future": 4086,
      "Ġtgt": 4087,
      "intp": 4088,
      "find": 4089,
      "Temp": 4090,
      "}\",": 4091,
      "Ġwere": 4092,
      "ker": 4093,
      "spatial": 4094,
      "parsers": 4095,
      "batched": 4096,
      "aved": 4097,
      "without": 4098,
      "PreTrainedTokenizer": 4099,
      "Ġiss": 4100,
      "inite": 4101,
      "Ġlibrary": 4102,
      "anded": 4103,
      "setup": 4104,
      "ĠGPT": 4105,
      "quivalence": 4106,
      "Ġstacked": 4107,
      "Ġcharact": 4108,
      "ĠLlama": 4109,
      "Ġattributes": 4110,
      "selection": 4111,
      "Ġ40": 4112,
      "rogram": 4113,
      "Ġlearning": 4114,
      "angeIndex": 4115,
      "################################": 4116,
      "2020": 4117,
      "oader": 4118,
      "Ġautomatic": 4119,
      "Ġnow": 4120,
      "ceback": 4121,
      "Ġkeyword": 4122,
      "ĠsetUp": 4123,
      "Ġadditional": 4124,
      "PIL": 4125,
      "ily": 4126,
      "dat": 4127,
      "ĠBatchFeature": 4128,
      "body": 4129,
      "apping": 4130,
      "Ġassistant": 4131,
      "Ġu": 4132,
      "cessary": 4133,
      "Ġscikit": 4134,
      "Ġheader": 4135,
      "]}": 4136,
      "tun": 4137,
      "ĠModel": 4138,
      "ĠAPI": 4139,
      "theta": 4140,
      "Gradient": 4141,
      "now": 4142,
      "entifier": 4143,
      "Ġ({": 4144,
      "Ġoverridden": 4145,
      "FUNCTIONS": 4146,
      "light": 4147,
      "haped": 4148,
      "wav": 4149,
      "align": 4150,
      "Ġinverse": 4151,
      "ixels": 4152,
      "ĠĠĠĠĠĠĠĠĠĠĠĠĠĠ": 4153,
      "grouped": 4154,
      "Ġlook": 4155,
      "extraction": 4156,
      "orskip": 4157,
      "onal": 4158,
      "dataframe": 4159,
      "SD": 4160,
      "Ġgre": 4161,
      "phas": 4162,
      "safe": 4163,
      "Ġattr": 4164,
      "Ġtake": 4165,
      "expert": 4166,
      "verbose": 4167,
      "Ġalgorithm": 4168,
      "Self": 4169,
      "ati": 4170,
      "colors": 4171,
      "Ġpaper": 4172,
      "erature": 4173,
      "matmul": 4174,
      "Ġmatrices": 4175,
      "Ġprobabilities": 4176,
      "Boo": 4177,
      "mamba": 4178,
      "ĠAn": 4179,
      "[::": 4180,
      "Ġitems": 4181,
      "QuestionAnswering": 4182,
      "Ġatt": 4183,
      "Ġpositional": 4184,
      "shapes": 4185,
      "lik": 4186,
      "Ġsent": 4187,
      "Ġdone": 4188,
      "distribut": 4189,
      "__,": 4190,
      "Period": 4191,
      "link": 4192,
      "may": 4193,
      "omial": 4194,
      "Ġboolean": 4195,
      "span": 4196,
      "Ġabove": 4197,
      "nodes": 4198,
      "loaded": 4199,
      "olve": 4200,
      "Ġargparse": 4201,
      "1000": 4202,
      "Al": 4203,
      "ĠIter": 4204,
      "importorskip": 4205,
      "month": 4206,
      "Ġ\\\\": 4207,
      "puter": 4208,
      "Ġsqu": 4209,
      "Ġpositions": 4210,
      "softmax": 4211,
      "etch": 4212,
      "ides": 4213,
      "sl": 4214,
      "Ġpack": 4215,
      "imestamps": 4216,
      "role": 4217,
      "interpolate": 4218,
      "Ġ----------------------------------------": 4219,
      "monotonic": 4220,
      "Month": 4221,
      "Ġbounding": 4222,
      "KEN": 4223,
      "Ġ31": 4224,
      "ish": 4225,
      "Ġprev": 4226,
      "brid": 4227,
      "collect": 4228,
      "Ġabout": 4229,
      "Ġtokenizers": 4230,
      "Ġvalidation": 4231,
      "randint": 4232,
      "Ġpooler": 4233,
      "IT": 4234,
      "positional": 4235,
      "Ġinherit": 4236,
      "Ġequivalent": 4237,
      "\")]": 4238,
      "classmethod": 4239,
      "ssm": 4240,
      "ĠGroup": 4241,
      "signature": 4242,
      "Ġsepar": 4243,
      "INERS": 4244,
      "Lazy": 4245,
      "mi": 4246,
      "ĠPipeline": 4247,
      "Ġfig": 4248,
      "85": 4249,
      "iclass": 4250,
      "extend": 4251,
      "Ġtemporal": 4252,
      "Pipeline": 4253,
      "ings": 4254,
      "Ġ24": 4255,
      "999": 4256,
      "Ġinitialization": 4257,
      "scaled": 4258,
      "cending": 4259,
      "cker": 4260,
      "Seq": 4261,
      "product": 4262,
      "outer": 4263,
      "hook": 4264,
      "shortest": 4265,
      "East": 4266,
      "Ġimplement": 4267,
      "assertIsInstance": 4268,
      "bers": 4269,
      "let": 4270,
      "Ġ['": 4271,
      "iled": 4272,
      "Training": 4273,
      "ĠPeriodIndex": 4274,
      "Ġreference": 4275,
      "Ġ2024": 4276,
      "hasattr": 4277,
      "isticRegression": 4278,
      "br": 4279,
      "gain": 4280,
      "pg": 4281,
      "Ġcommon": 4282,
      "blob": 4283,
      "Ġeager": 4284,
      "capt": 4285,
      "Ġstop": 4286,
      "60": 4287,
      ">`.": 4288,
      "yper": 4289,
      "Ġra": 4290,
      "Ġnested": 4291,
      "Ġplace": 4292,
      "Ġsliding": 4293,
      "otary": 4294,
      "Ġcalling": 4295,
      "beam": 4296,
      "ampled": 4297,
      "Ġstruct": 4298,
      "CONTA": 4299,
      ")},": 4300,
      "Ġsimple": 4301,
      "Ġrepeat": 4302,
      "ĠGet": 4303,
      "targets": 4304,
      "Tree": 4305,
      "asic": 4306,
      "Ġscope": 4307,
      "defics": 4308,
      "ators": 4309,
      "Ġ</": 4310,
      "~~": 4311,
      "Ġz": 4312,
      "Ġrep": 4313,
      "Ġexpert": 4314,
      "compatible": 4315,
      "CONTAINERS": 4316,
      "Ġfuture": 4317,
      "Ġhe": 4318,
      "getitem": 4319,
      "ordered": 4320,
      "Ġfunctions": 4321,
      "ensionality": 4322,
      "loor": 4323,
      "ĠNo": 4324,
      "logging": 4325,
      "Ġdirectory": 4326,
      "quantile": 4327,
      "Ġeven": 4328,
      "Ġunk": 4329,
      "Ġtrue": 4330,
      "cov": 4331,
      "../": 4332,
      "Ġtruncated": 4333,
      "Timedelta": 4334,
      "except": 4335,
      "Ġdeviation": 4336,
      "ocal": 4337,
      "leaf": 4338,
      "iteral": 4339,
      "\"`,": 4340,
      "54": 4341,
      "Ġdisplay": 4342,
      "uxili": 4343,
      "uxiliary": 4344,
      "Ġca": 4345,
      "Ġsearch": 4346,
      "Äł": 4347,
      "Ġ\"{": 4348,
      "Ġestimators": 4349,
      "Ġquantization": 4350,
      "Ġmonkeypatch": 4351,
      "differ": 4352,
      "97": 4353,
      "meta": 4354,
      "Ġmi": 4355,
      "Ġho": 4356,
      "ĠInt": 4357,
      "scorer": 4358,
      "ĠNotImplementedError": 4359,
      "Checkpoint": 4360,
      "Hello": 4361,
      "ĠDo": 4362,
      "Code": 4363,
      "DA": 4364,
      "Ġcategorical": 4365,
      "tom": 4366,
      "Ġ`'": 4367,
      "ĠDi": 4368,
      "ynamicCache": 4369,
      "63": 4370,
      "splits": 4371,
      "ont": 4372,
      "Ġenc": 4373,
      "Ġemb": 4374,
      "FeatureExtractor": 4375,
      "Ġdecision": 4376,
      "chema": 4377,
      "buckets": 4378,
      "codings": 4379,
      "Ġnormalization": 4380,
      "atios": 4381,
      "kernels": 4382,
      "assertRaises": 4383,
      "distances": 4384,
      "As": 4385,
      "fixtures": 4386,
      "ĠSelf": 4387,
      "ttribute": 4388,
      "Ġraised": 4389,
      "after": 4390,
      "ĠDefault": 4391,
      "Ent": 4392,
      "Ġtre": 4393,
      "unction": 4394,
      "Ġ\"\",": 4395,
      "this": 4396,
      "verg": 4397,
      "chedul": 4398,
      "Masked": 4399,
      "Ġpattern": 4400,
      "Ġexception": 4401,
      "simple": 4402,
      "Ġinclu": 4403,
      "Directory": 4404,
      "Processing": 4405,
      "Ġ2025": 4406,
      "Eastern": 4407,
      "LA": 4408,
      "cing": 4409,
      "Ġshort": 4410,
      "ickle": 4411,
      "Logits": 4412,
      "Display": 4413,
      "Ġsegment": 4414,
      "IG": 4415,
      "Ġchoice": 4416,
      "Ġproperly": 4417,
      "mma": 4418,
      "maybe": 4419,
      "`)": 4420,
      "esca": 4421,
      "reset": 4422,
      "Ġresponse": 4423,
      "escape": 4424,
      "bb": 4425,
      "semantic": 4426,
      "sertion": 4427,
      "Ġinterpolation": 4428,
      "}'": 4429,
      "Ġwrite": 4430,
      "scope": 4431,
      "inner": 4432,
      "ares": 4433,
      "Ġsubset": 4434,
      "epsilon": 4435,
      "CO": 4436,
      "ĠCreate": 4437,
      "Ġinterpolate": 4438,
      "aveform": 4439,
      "VisionModel": 4440,
      "Ġnormalized": 4441,
      "element": 4442,
      "Ġdense": 4443,
      "Ġmatplotlib": 4444,
      "Ġdynamic": 4445,
      "ImageProcessorFast": 4446,
      "straints": 4447,
      "show": 4448,
      "TEN": 4449,
      "ĠImp": 4450,
      "74": 4451,
      "lat": 4452,
      "itch": 4453,
      "Ġsep": 4454,
      "apers": 4455,
      "Temporary": 4456,
      "Ġautomatically": 4457,
      "pan": 4458,
      "Ġcombin": 4459,
      "TokenClassification": 4460,
      "nonzero": 4461,
      "ench": 4462,
      "ĠEach": 4463,
      "Strategy": 4464,
      "typ": 4465,
      "ybrid": 4466,
      "ĠALL": 4467,
      "dataclass": 4468,
      "codec": 4469,
      "egral": 4470,
      "Ġestim": 4471,
      "ength": 4472,
      "area": 4473,
      "Ġ128": 4474,
      "cumul": 4475,
      "Ġtokenize": 4476,
      "LazyModule": 4477,
      "93": 4478,
      "Ġfailed": 4479,
      "crease": 4480,
      "Blip": 4481,
      "FIG": 4482,
      "LP": 4483,
      "igmo": 4484,
      "Ġlarg": 4485,
      "igmoid": 4486,
      "gpu": 4487,
      "sys": 4488,
      "igen": 4489,
      "Ġren": 4490,
      "means": 4491,
      "Ġlengths": 4492,
      "mixed": 4493,
      "Ġfine": 4494,
      "ĠLinear": 4495,
      "uble": 4496,
      "requests": 4497,
      "Le": 4498,
      "trainer": 4499,
      "velo": 4500,
      "ForTokenClassification": 4501,
      "uch": 4502,
      "gemma": 4503,
      "ĠOr": 4504,
      "94": 4505,
      "AM": 4506,
      "half": 4507,
      "Ġexplicit": 4508,
      "skipna": 4509,
      "peak": 4510,
      "Ġdecoding": 4511,
      "summary": 4512,
      "Ġexc": 4513,
      "Ġ1024": 4514,
      "squared": 4515,
      "Ġscipy": 4516,
      "Ġdecimal": 4517,
      "62": 4518,
      "Ġwithin": 4519,
      "allback": 4520,
      "Ġcached": 4521,
      "VA": 4522,
      "seen": 4523,
      "Ġlower": 4524,
      "weighted": 4525,
      "nb": 4526,
      "rounding": 4527,
      "olds": 4528,
      "Ġcould": 4529,
      "Embeddings": 4530,
      "ĠReg": 4531,
      "ackbone": 4532,
      "Ġregular": 4533,
      "ackends": 4534,
      "levant": 4535,
      "Ġinfo": 4536,
      "Ġnote": 4537,
      "ĠClass": 4538,
      "fitted": 4539,
      "correct": 4540,
      "Ġintercept": 4541,
      "TokenizerFast": 4542,
      "And": 4543,
      "Ġevery": 4544,
      "verter": 4545,
      "Ġmatching": 4546,
      "Ġobtained": 4547,
      "TemporaryDirectory": 4548,
      "efficient": 4549,
      "ForQuestionAnswering": 4550,
      "Cannot": 4551,
      "Ġrest": 4552,
      "ĠĠĠĠĠĠĠĠĠĠĠĠĠĠĠĠĠĠĠĠĠĠĠĠĠĠĠĠĠĠĠĠ": 4553,
      "lue": 4554,
      "Ġmany": 4555,
      "ayout": 4556,
      "Ġvery": 4557,
      "celerate": 4558,
      "ModelTesterMixin": 4559,
      "inverse": 4560,
      "dependen": 4561,
      "Tests": 4562,
      "Ġinferred": 4563,
      "oper": 4564,
      "Parser": 4565,
      "Ġvectors": 4566,
      "flowing": 4567,
      "arly": 4568,
      "Ġref": 4569,
      "produces": 4570,
      "enate": 4571,
      "ND": 4572,
      "flex": 4573,
      "hot": 4574,
      "pass": 4575,
      "ĠAuthors": 4576,
      "Ġprovide": 4577,
      "One": 4578,
      "Ġrank": 4579,
      "ĠTuple": 4580,
      "EST": 4581,
      "Ġnecessary": 4582,
      "ID": 4583,
      "\"]],": 4584,
      "Ġacross": 4585,
      "pers": 4586,
      "Ġcap": 4587,
      "Ġchild": 4588,
      "regation": 4589,
      "flat": 4590,
      "Options": 4591,
      "Ġdefining": 4592,
      "ism": 4593,
      "Ġans": 4594,
      "RST": 4595,
      "oug": 4596,
      "ĠKey": 4597,
      "Checkpointing": 4598,
      "seconds": 4599,
      "ields": 4600,
      "Ġinstantiate": 4601,
      "67": 4602,
      "ĠPython": 4603,
      "Ġcodebook": 4604,
      "CheckpointingLayer": 4605,
      "Ġrefer": 4606,
      "Ġgb": 4607,
      "Ġlow": 4608,
      "Invalid": 4609,
      "Ġaccelerator": 4610,
      "ments": 4611,
      "andidate": 4612,
      "RO": 4613,
      "Ġtie": 4614,
      "Ġthose": 4615,
      "Ġleast": 4616,
      "Entropy": 4617,
      "papers": 4618,
      "Ġalign": 4619,
      "jpg": 4620,
      "negative": 4621,
      "Ġmlp": 4622,
      "Ġsafe": 4623,
      "Ġcorresponds": 4624,
      "Ġspace": 4625,
      "2018": 4626,
      "Ġinvalid": 4627,
      "IP": 4628,
      "keypoints": 4629,
      "69": 4630,
      "ript": 4631,
      "Ġwell": 4632,
      "ForImage": 4633,
      "interval": 4634,
      "ĠLe": 4635,
      "cached": 4636,
      "counter": 4637,
      "Ġloaded": 4638,
      "anced": 4639,
      "ĠRun": 4640,
      "finite": 4641,
      "rong": 4642,
      "ĠConfiguration": 4643,
      "ground": 4644,
      "thread": 4645,
      "ĠRandom": 4646,
      "Ġnull": 4647,
      "geT": 4648,
      "response": 4649,
      "Ġremoved": 4650,
      "Mult": 4651,
      "Ġpython": 4652,
      "Ġshift": 4653,
      "70": 4654,
      "ected": 4655,
      "we": 4656,
      "normalized": 4657,
      "Ġfixture": 4658,
      "exc": 4659,
      "ĠRaises": 4660,
      "](../": 4661,
      "Ġremain": 4662,
      "ibr": 4663,
      "ExtensionArray": 4664,
      "PUT": 4665,
      "xy": 4666,
      "Ġ[(\"": 4667,
      "scikit": 4668,
      "Ġinspect": 4669,
      "imm": 4670,
      "Ġagain": 4671,
      "Ġcompare": 4672,
      "cheduler": 4673,
      "Ġedge": 4674,
      "alcon": 4675,
      "Ġparallel": 4676,
      "FIRST": 4677,
      "Ġrotary": 4678,
      "qwen": 4679,
      "stream": 4680,
      "ĠAutoProcessor": 4681,
      "'.": 4682,
      "holder": 4683,
      "Ġmodular": 4684,
      "Ġbbox": 4685,
      "Ġdistribution": 4686,
      "subplots": 4687,
      "vergence": 4688,
      "rename": 4689,
      "emo": 4690,
      "ĠSize": 4691,
      "Ġmatches": 4692,
      "Ġcondition": 4693,
      "equivalence": 4694,
      "env": 4695,
      "Ġforce": 4696,
      "tral": 4697,
      "TextModel": 4698,
      "Ġvariable": 4699,
      "([],": 4700,
      "\"][\"": 4701,
      "Ġstatic": 4702,
      "clamp": 4703,
      "pi": 4704,
      "zone": 4705,
      "]]:": 4706,
      "iou": 4707,
      "mix": 4708,
      "ratios": 4709,
      "section": 4710,
      "Ġside": 4711,
      "INE": 4712,
      "Ġjoin": 4713,
      "ĠNumPy": 4714,
      "ank": 4715,
      "Ġconstant": 4716,
      "769": 4717,
      "512": 4718,
      "bfloat": 4719,
      "Ġcovariance": 4720,
      "hood": 4721,
      "relu": 4722,
      "stop": 4723,
      "Ġbackend": 4724,
      "ooling": 4725,
      "cle": 4726,
      "ners": 4727,
      "Ġbelow": 4728,
      "named": 4729,
      "defined": 4730,
      "Ġraises": 4731,
      "Ġcompatibility": 4732,
      "ĠPadding": 4733,
      "tp": 4734,
      "Ġvia": 4735,
      "road": 4736,
      "ĠRangeIndex": 4737,
      "53": 4738,
      "GPT": 4739,
      "61": 4740,
      "beta": 4741,
      "ended": 4742,
      "Ġinterval": 4743,
      "pyplot": 4744,
      "ĠLabels": 4745,
      "]`.": 4746,
      "iating": 4747,
      "oe": 4748,
      "force": 4749,
      "Ġmodules": 4750,
      "Ġrepresentation": 4751,
      "Scaler": 4752,
      "+).": 4753,
      "dynamic": 4754,
      "Ġgh": 4755,
      "Ġencode": 4756,
      "2007": 4757,
      "(\".": 4758,
      "ĠBy": 4759,
      "ĠMake": 4760,
      "Ġnoise": 4761,
      "answer": 4762,
      "ABC": 4763,
      "ĠAdd": 4764,
      "ĠLiteral": 4765,
      "Ġstarting": 4766,
      "quantization": 4767,
      "numba": 4768,
      "ERT": 4769,
      "aloader": 4770,
      "Ġdecoded": 4771,
      "Ġ23": 4772,
      "Ġnumbers": 4773,
      "OutputWithPast": 4774,
      "Ġmessages": 4775,
      "cell": 4776,
      "Ġseen": 4777,
      "Ġwhat": 4778,
      "Ġbound": 4779,
      "same": 4780,
      "tas": 4781,
      "ĠCLIP": 4782,
      "strings": 4783,
      "0000000": 4784,
      "Ġepsilon": 4785,
      "Ġmeta": 4786,
      "Ġspect": 4787,
      "Ġdevelo": 4788,
      "ĠGuide": 4789,
      "predictor": 4790,
      "SA": 4791,
      "bad": 4792,
      "qq": 4793,
      "ashable": 4794,
      "directory": 4795,
      "Ġsemantic": 4796,
      "ĠCross": 4797,
      "Ġlr": 4798,
      "Ġstill": 4799,
      "endswith": 4800,
      "Depth": 4801,
      "txt": 4802,
      "DT": 4803,
      "LO": 4804,
      "`).": 4805,
      "pixels": 4806,
      "Ġret": 4807,
      "ĠPreTrainedConfig": 4808,
      "inov": 4809,
      "lash": 4810,
      "root": 4811,
      "union": 4812,
      "StringIO": 4813,
      "mos": 4814,
      "supported": 4815,
      "unch": 4816,
      "else": 4817,
      "]`:": 4818,
      "hs": 4819,
      "olid": 4820,
      "Sam": 4821,
      "ĠPILImageResampling": 4822,
      "ĠConfigTester": 4823,
      "CrossAttention": 4824,
      "Ġstructure": 4825,
      "glossary": 4826,
      "sr": 4827,
      "prod": 4828,
      "asso": 4829,
      "Ġyear": 4830,
      "both": 4831,
      "mes": 4832,
      "Ġbuffer": 4833,
      "Ġcount": 4834,
      "wn": 4835,
      "Ġlink": 4836,
      "fillna": 4837,
      "Ġoffsets": 4838,
      "TOKEN": 4839,
      "Name": 4840,
      "Ġchat": 4841,
      "diag": 4842,
      "pointer": 4843,
      "048": 4844,
      "iated": 4845,
      "ĠSP": 4846,
      "Ġallowed": 4847,
      "sam": 4848,
      "precomputed": 4849,
      "crib": 4850,
      "riterion": 4851,
      "action": 4852,
      "Ġtoo": 4853,
      "tern": 4854,
      "scatter": 4855,
      "Ġ-----": 4856,
      "visible": 4857,
      "usic": 4858,
      "ret": 4859,
      "afet": 4860,
      "roadcast": 4861,
      "Ġdoctest": 4862,
      "Ġ7101": 4863,
      "lerance": 4864,
      "Return": 4865,
      "how": 4866,
      "ki": 4867,
      "utc": 4868,
      "End": 4869,
      "aries": 4870,
      "storage": 4871,
      "dof": 4872,
      "expanded": 4873,
      "written": 4874,
      "floor": 4875,
      "Ġduplic": 4876,
      "ravel": 4877,
      "dients": 4878,
      "filename": 4879,
      "73": 4880,
      "<|": 4881,
      "Lo": 4882,
      "Ġimg": 4883,
      "ttributeError": 4884,
      "sertionError": 4885,
      "gin": 4886,
      "tied": 4887,
      "dered": 4888,
      "Ġfeed": 4889,
      "Ġless": 4890,
      "Ġaspect": 4891,
      "prior": 4892,
      "ĠNotes": 4893,
      "real": 4894,
      "ATTEN": 4895,
      "mk": 4896,
      "92": 4897,
      "cap": 4898,
      "ially": 4899,
      "Search": 4900,
      "imask": 4901,
      "()[": 4902,
      "()),": 4903,
      "derr": 4904,
      "Ġcoun": 4905,
      "project": 4906,
      "ov": 4907,
      "Ġpreprocess": 4908,
      "Ġresizing": 4909,
      "Ġcalls": 4910,
      "dropna": 4911,
      "ĠAutoModelForCausalLM": 4912,
      "Ġ([\"": 4913,
      "bound": 4914,
      "ĠInput": 4915,
      "41": 4916,
      "pca": 4917,
      "argmax": 4918,
      "pairwise": 4919,
      "Ġdue": 4920,
      "Ġhub": 4921,
      "Ġdelta": 4922,
      "choice": 4923,
      "ATTENTION": 4924,
      "Ġtak": 4925,
      "change": 4926,
      "Ġ42": 4927,
      "2015": 4928,
      "ĠĠĠĠĠĠĠĠĠĠĠĠĠĠĠĠĠ": 4929,
      "Ġinitializing": 4930,
      "curve": 4931,
      "Ġpairwise": 4932,
      "224": 4933,
      "roberta": 4934,
      "Ġpen": 4935,
      "Ġfin": 4936,
      "Ġobserved": 4937,
      "?](../": 4938,
      "cm": 4939,
      "equals": 4940,
      "pooling": 4941,
      "bosity": 4942,
      "90": 4943,
      "}:": 4944,
      "igg": 4945,
      "tokenize": 4946,
      "Ġcomponents": 4947,
      "plugin": 4948,
      "GD": 4949,
      "insert": 4950,
      "Ġtuples": 4951,
      "rapped": 4952,
      "Ġpower": 4953,
      "Ġlm": 4954,
      "Ġexpand": 4955,
      "svm": 4956,
      "ĠLogisticRegression": 4957,
      "Ġimplemented": 4958,
      "Ġapprox": 4959,
      "Num": 4960,
      "eli": 4961,
      "liers": 4962,
      "problem": 4963,
      "Ġhash": 4964,
      "staticmethod": 4965,
      "Mode": 4966,
      "card": 4967,
      "Argument": 4968,
      "Roberta": 4969,
      "102": 4970,
      "backends": 4971,
      "pull": 4972,
      "deta": 4973,
      "enchmark": 4974,
      "SK": 4975,
      "fra": 4976,
      "vars": 4977,
      "Ġsy": 4978,
      "ĠInstant": 4979,
      "Ġnodes": 4980,
      "ĠGlm": 4981,
      "Ġcompression": 4982,
      ".(\\": 4983,
      "median": 4984,
      "failed": 4985,
      "ĠBaseModelOutputWithPast": 4986,
      "Sparse": 4987,
      "imensionality": 4988,
      "SI": 4989,
      "inalg": 4990,
      "manager": 4991,
      "Ġsizes": 4992,
      "Ġident": 4993,
      "Ġgenerator": 4994,
      "legend": 4995,
      "ĠImport": 4996,
      ">\"": 4997,
      "Conf": 4998,
      "Ġcategory": 4999,
      "ixture": 5000,
      "Ġyet": 5001,
      "Gener": 5002,
      "free": 5003,
      "lation": 5004,
      "Ġ[[\"": 5005,
      "ifted": 5006,
      "inese": 5007,
      "vectors": 5008,
      "52": 5009,
      "warm": 5010,
      "ranite": 5011,
      "inity": 5012,
      "cumsum": 5013,
      "ĠPreTrainedModel": 5014,
      "QA": 5015,
      "ral": 5016,
      "Parameters": 5017,
      "enable": 5018,
      "Ġrelevant": 5019,
      "ising": 5020,
      "Ġcurr": 5021,
      "Ġast": 5022,
      "Ġdog": 5023,
      "rapper": 5024,
      "GB": 5025,
      "ĠTraining": 5026,
      "ayoutLM": 5027,
      "Ġ71011": 5028,
      "iase": 5029,
      "Ġds": 5030,
      "Ġ255": 5031,
      "Ġoperation": 5032,
      "curs": 5033,
      "Boosting": 5034,
      "FIL": 5035,
      "lin": 5036,
      "ĠDimensionality": 5037,
      "ĠGradient": 5038,
      "pag": 5039,
      "Ġtimes": 5040,
      "lide": 5041,
      "Ġrequested": 5042,
      "OmniMoe": 5043,
      "ĠCSR": 5044,
      "Patch": 5045,
      "based": 5046,
      "residual": 5047,
      "Ġuseful": 5048,
      "exists": 5049,
      "Ġroot": 5050,
      "topk": 5051,
      "localize": 5052,
      "Ġonce": 5053,
      "dti": 5054,
      "gree": 5055,
      "Ġretrie": 5056,
      "0101": 5057,
      "ĠThese": 5058,
      "isnan": 5059,
      "Ġconversion": 5060,
      "Ġloading": 5061,
      "Ġseed": 5062,
      "ĠSup": 5063,
      "ported": 5064,
      "Ġunsqueeze": 5065,
      "sy": 5066,
      "Ġearly": 5067,
      "ĠLoad": 5068,
      "location": 5069,
      "Segmentation": 5070,
      "zen": 5071,
      "(\"-": 5072,
      "Ġhist": 5073,
      "Ġoptions": 5074,
      "MPLE": 5075,
      "ired": 5076,
      "serve": 5077,
      "uclide": 5078,
      "visor": 5079,
      "uclidean": 5080,
      "?\\": 5081,
      "Ġextension": 5082,
      "Ġupdated": 5083,
      "ClassifierOutput": 5084,
      "Ġlonger": 5085,
      "File": 5086,
      "tc": 5087,
      "Ġ09": 5088,
      "Ġhalf": 5089,
      "iplier": 5090,
      "epspeed": 5091,
      "inker": 5092,
      "Ġissue": 5093,
      "days": 5094,
      "eno": 5095,
      "flags": 5096,
      "serial": 5097,
      "abet": 5098,
      "Ġ'{": 5099,
      "mock": 5100,
      "build": 5101,
      "43": 5102,
      "Cla": 5103,
      "ModelTest": 5104,
      "conversion": 5105,
      "ĠComp": 5106,
      "stract": 5107,
      "eepseek": 5108,
      "duration": 5109,
      "rozen": 5110,
      "Ġinf": 5111,
      "quential": 5112,
      "record": 5113,
      "downsample": 5114,
      "abetes": 5115,
      "ically": 5116,
      "()}": 5117,
      "Ġenable": 5118,
      "Ġuni": 5119,
      "baz": 5120,
      "BIC": 5121,
      "tower": 5122,
      "ĠMe": 5123,
      "istency": 5124,
      "Ġweighted": 5125,
      "handle": 5126,
      "gamma": 5127,
      "Ġspeed": 5128,
      "covariance": 5129,
      "Ġdependen": 5130,
      "Ġcomparison": 5131,
      "nected": 5132,
      "iques": 5133,
      "timm": 5134,
      "Ġfrequencies": 5135,
      "ivations": 5136,
      "closed": 5137,
      "ries": 5138,
      "Ġcu": 5139,
      "Ġmak": 5140,
      "Ġsteps": 5141,
      "ĠDictionary": 5142,
      "aut": 5143,
      "limit": 5144,
      "child": 5145,
      "ully": 5146,
      "Ġab": 5147,
      "ĠCausalLM": 5148,
      "([-": 5149,
      "try": 5150,
      "Ġchecks": 5151,
      "Ġvideos": 5152,
      "atted": 5153,
      "Ġleg": 5154,
      "ENET": 5155,
      "exceptions": 5156,
      "cro": 5157,
      "inplace": 5158,
      "changed": 5159,
      "Ġtesting": 5160,
      "Ġsv": 5161,
      "ranch": 5162,
      "predicted": 5163,
      "Ġstrategy": 5164,
      "Ġdistance": 5165,
      "Ġtrust": 5166,
      "Ġrouting": 5167,
      "PILImageResampling": 5168,
      "sil": 5169,
      "alphas": 5170,
      "Ġdiag": 5171,
      "Ġdisable": 5172,
      "ĠTensorType": 5173,
      ")\"": 5174,
      "tter": 5175,
      "}/": 5176,
      "osmos": 5177,
      "Ġstat": 5178,
      "ublic": 5179,
      "seqlens": 5180,
      "Ġ\"`": 5181,
      "Ġrms": 5182,
      "Ġcommit": 5183,
      "Ġpush": 5184,
      "Ġ:].": 5185,
      "Ġcoordinates": 5186,
      "corr": 5187,
      "ĠExtensionArray": 5188,
      "Ġneighbors": 5189,
      "Bart": 5190,
      "Ġcell": 5191,
      "Ġreal": 5192,
      "Ġregex": 5193,
      "__`]": 5194,
      "objects": 5195,
      "clean": 5196,
      "fine": 5197,
      "wo": 5198,
      "lying": 5199,
      "Ġmamba": 5200,
      "ĠAxis": 5201,
      "Ġrate": 5202,
      "Ġdifference": 5203,
      "WithPooling": 5204,
      "MAGENET": 5205,
      "Ġanswer": 5206,
      "come": 5207,
      "Ġwaveform": 5208,
      "Ġaction": 5209,
      "locs": 5210,
      "Ġbs": 5211,
      "Ġtargets": 5212,
      "uccess": 5213,
      "Ġmixed": 5214,
      "commit": 5215,
      "sentencepiece": 5216,
      "Detection": 5217,
      "\"})": 5218,
      "NAME": 5219,
      "Max": 5220,
      "Ġsaved": 5221,
      "Ġbegin": 5222,
      "ĠAutoConfig": 5223,
      "expect": 5224,
      "generator": 5225,
      "Comp": 5226,
      "SKIP": 5227,
      "FF": 5228,
      "Ġplease": 5229,
      "expr": 5230,
      "Ġ28": 5231,
      "Ġkeypoints": 5232,
      "UM": 5233,
      "Wav": 5234,
      "arest": 5235,
      "(\"\\": 5236,
      "\"^": 5237,
      "bet": 5238,
      "Ġconstructor": 5239,
      "Ġperm": 5240,
      "ĠHub": 5241,
      "condition": 5242,
      "precation": 5243,
      "39769": 5244,
      "71": 5245,
      "suffix": 5246,
      "Ġfoo": 5247,
      "indexes": 5248,
      "Ġcomputation": 5249,
      "quantized": 5250,
      "attributes": 5251,
      "CTC": 5252,
      "Ġsmaller": 5253,
      "Ġway": 5254,
      "tag": 5255,
      "Ġquantized": 5256,
      "Ġmonth": 5257,
      "gress": 5258,
      "ensors": 5259,
      "Ġproject": 5260,
      ")\",": 5261,
      "cd": 5262,
      "spaces": 5263,
      "Ġpipe": 5264,
      "ĠOther": 5265,
      "ensemble": 5266,
      "Ġadapter": 5267,
      "acy": 5268,
      "Ġappro": 5269,
      "Ġnoqa": 5270,
      "Vector": 5271,
      "Ġsim": 5272,
      "()]": 5273,
      "Ġmaps": 5274,
      "Ġscoring": 5275,
      "ea": 5276,
      "lies": 5277,
      "collator": 5278,
      "overload": 5279,
      "Fold": 5280,
      "should": 5281,
      "percent": 5282,
      "Ġflatten": 5283,
      "Form": 5284,
      "iling": 5285,
      "ffici": 5286,
      "Ġsql": 5287,
      "aspect": 5288,
      "Ġpers": 5289,
      "Ġintegers": 5290,
      "DX": 5291,
      "rink": 5292,
      "tie": 5293,
      "yles": 5294,
      "ForMasked": 5295,
      "ĠMobile": 5296,
      "51": 5297,
      "arter": 5298,
      "ĠSV": 5299,
      "Prediction": 5300,
      "pooled": 5301,
      "000000039769": 5302,
      "aug": 5303,
      "Ġnamed": 5304,
      "Ġminimum": 5305,
      "Ġsentence": 5306,
      "RL": 5307,
      "Rotary": 5308,
      "uid": 5309,
      "ĠTime": 5310,
      "Ġperformance": 5311,
      "%-": 5312,
      "Ġshapes": 5313,
      "Ġ2023": 5314,
      "requency": 5315,
      "ForImageClassification": 5316,
      "-%": 5317,
      "SC": 5318,
      "]]),": 5319,
      "corners": 5320,
      "XX": 5321,
      "ãģĦ": 5322,
      "MEAN": 5323,
      "begin": 5324,
      "direct": 5325,
      "Ġshuffle": 5326,
      "Ġsw": 5327,
      "000000": 5328,
      "description": 5329,
      "Ġbuild": 5330,
      "usicgen": 5331,
      "deltas": 5332,
      "Ġentry": 5333,
      "filterwarnings": 5334,
      "Ġoptimizer": 5335,
      "ough": 5336,
      "SearchCV": 5337,
      "false": 5338,
      "once": 5339,
      "Ġbins": 5340,
      "thresh": 5341,
      "ĠBlip": 5342,
      "ĠArrow": 5343,
      "riteria": 5344,
      "Ġmel": 5345,
      "Ġdowns": 5346,
      "super": 5347,
      "pooler": 5348,
      "ĠIgn": 5349,
      "cribe": 5350,
      "peft": 5351,
      "ĠText": 5352,
      "properties": 5353,
      "utureWarning": 5354,
      "Ġival": 5355,
      "clone": 5356,
      "Ġkv": 5357,
      "2010": 5358,
      "Ġindent": 5359,
      "Ġvariance": 5360,
      "Ġfixed": 5361,
      "ĠInstantiating": 5362,
      "Com": 5363,
      "ever": 5364,
      "neg": 5365,
      "timestamps": 5366,
      "Ġta": 5367,
      "strict": 5368,
      "mid": 5369,
      "peated": 5370,
      "ysis": 5371,
      "Ġassign": 5372,
      "Ġfrequency": 5373,
      "jit": 5374,
      "approx": 5375,
      "ĠBlock": 5376,
      "Ġrespect": 5377,
      "imation": 5378,
      "Ġcomplex": 5379,
      "Ġclone": 5380,
      "Clause": 5381,
      "bug": 5382,
      "ĠABC": 5383,
      "scipy": 5384,
      "Quant": 5385,
      "Ġlocation": 5386,
      "Ġsignature": 5387,
      "ĠEncoder": 5388,
      "Ġdevelopers": 5389,
      "afetensors": 5390,
      "Ġlead": 5391,
      ":%": 5392,
      "ud": 5393,
      "hed": 5394,
      "los": 5395,
      "ĠMax": 5396,
      "ĠIntervalIndex": 5397,
      "learning": 5398,
      "dern": 5399,
      "ĠBSD": 5400,
      "ivity": 5401,
      "SelfAttention": 5402,
      "EntropyLoss": 5403,
      "ĠðŁļ¨ðŁļ¨ðŁļ¨ðŁļ¨ðŁļ¨ðŁļ¨ðŁļ¨ðŁļ¨ðŁļ¨ðŁļ¨ðŁļ¨ðŁļ¨ðŁļ¨ðŁļ¨ðŁļ¨ðŁļ¨ðŁļ¨ðŁļ¨ðŁļ¨ðŁļ¨ðŁļ¨ðŁļ¨ðŁļ¨ðŁļ¨ðŁļ¨ðŁļ¨ðŁļ¨ðŁļ¨ðŁļ¨ðŁļ¨ðŁļ¨ðŁļ¨": 5404,
      "hour": 5405,
      "grouping": 5406,
      "Ġgraph": 5407,
      "Identifier": 5408,
      "ĠðŁļ¨ðŁļ¨ðŁļ¨ðŁļ¨ðŁļ¨ðŁļ¨ðŁļ¨ðŁļ¨ðŁļ¨ðŁļ¨ðŁļ¨ðŁļ¨ðŁļ¨ðŁļ¨ðŁļ¨ðŁļ¨ðŁļ¨ðŁļ¨ðŁļ¨ðŁļ¨ðŁļ¨ðŁļ¨ðŁļ¨ðŁļ¨ðŁļ¨ðŁļ¨ðŁļ¨ðŁļ¨ðŁļ¨ðŁļ¨ðŁļ¨ðŁļ¨ðŁļ¨ðŁļ¨ðŁļ¨ðŁļ¨ðŁļ¨ðŁļ¨ðŁļ¨ðŁļ¨ðŁļ¨ðŁļ¨ðŁļ¨ðŁļ¨ðŁļ¨ðŁļ¨ðŁļ¨ðŁļ¨": 5409,
      "actual": 5410,
      "when": 5411,
      "FAUL": 5412,
      "ĠSPDX": 5413,
      "Next": 5414,
      "passed": 5415,
      "otent": 5416,
      "ĠSpeech": 5417,
      "ĠNOT": 5418,
      "83": 5419,
      "tf": 5420,
      "Ġdetermin": 5421,
      "layerdrop": 5422,
      "SVC": 5423,
      "DEC": 5424,
      "Set": 5425,
      "Tra": 5426,
      "asure": 5427,
      "Ġkw": 5428,
      "square": 5429,
      "PATH": 5430,
      "conftest": 5431,
      "microsoft": 5432,
      "RotaryEmbedding": 5433,
      "fold": 5434,
      "Ġ\"%": 5435,
      "ĠVideo": 5436,
      "Ġproblem": 5437,
      "=_": 5438,
      "ĠSiglip": 5439,
      "Convert": 5440,
      "beams": 5441,
      "requent": 5442,
      "ĠGaussian": 5443,
      "shares": 5444,
      "elihood": 5445,
      "Backbone": 5446,
      "001": 5447,
      "__\":": 5448,
      "Ġselection": 5449,
      "preprocessing": 5450,
      "AST": 5451,
      "Ġinitialize": 5452,
      "ĠGenerationMixin": 5453,
      "Neighbors": 5454,
      "'\"": 5455,
      "()._": 5456,
      "Ġhis": 5457,
      "------------------------": 5458,
      "Ġassoc": 5459,
      "ools": 5460,
      "requires": 5461,
      "coords": 5462,
      "Ġrevision": 5463,
      "ĠExpect": 5464,
      "multiindex": 5465,
      "buf": 5466,
      "vl": 5467,
      "integr": 5468,
      "llava": 5469,
      "asus": 5470,
      "ĠBe": 5471,
      "nsure": 5472,
      "Ġmanually": 5473,
      "db": 5474,
      "Ġ224": 5475,
      ",)`,": 5476,
      "ecut": 5477,
      "PO": 5478,
      "RA": 5479,
      "Ġunset": 5480,
      "logit": 5481,
      "Ġadjust": 5482,
      "fg": 5483,
      "ĠSw": 5484,
      "Ġmaybe": 5485,
      "nat": 5486,
      "depend": 5487,
      "Ġ22": 5488,
      "**-": 5489,
      "Ġassum": 5490,
      "QU": 5491,
      "Ġbar": 5492,
      "colwise": 5493,
      "lessM": 5494,
      "dividual": 5495,
      "corator": 5496,
      "works": 5497,
      "Ġcreated": 5498,
      "some": 5499,
      "cogn": 5500,
      "ĠDynamicCache": 5501,
      "Ġpairs": 5502,
      "Multimodal": 5503,
      "lor": 5504,
      "projector": 5505,
      "CrossAttentions": 5506,
      ":],": 5507,
      "AC": 5508,
      "9999": 5509,
      "Ġ([`": 5510,
      "Ġtrack": 5511,
      "assertIsNot": 5512,
      "'},": 5513,
      "81": 5514,
      "vers": 5515,
      "arded": 5516,
      "peParameters": 5517,
      "()[\"": 5518,
      "Ġhyper": 5519,
      "ĠMy": 5520,
      "'`:": 5521,
      "Request": 5522,
      "IM": 5523,
      "Ġlists": 5524,
      "Ġiterations": 5525,
      "ĠStandard": 5526,
      "ws": 5527,
      "exception": 5528,
      "}.\"": 5529,
      "Ġinitialized": 5530,
      "sdp": 5531,
      "ObjectDetection": 5532,
      "lk": 5533,
      "pear": 5534,
      "leave": 5535,
      "Ġwarm": 5536,
      "tools": 5537,
      "Ġ[{\"": 5538,
      "dius": 5539,
      "Ġsummary": 5540,
      "ĠStringIO": 5541,
      "Ġ\"'": 5542,
      "Ġklass": 5543,
      "compression": 5544,
      "Ġterm": 5545,
      "ĠCrossEntropyLoss": 5546,
      "Ġbytes": 5547,
      "Ġprocessors": 5548,
      "Ġfollow": 5549,
      "dig": 5550,
      "atform": 5551,
      "Ġtf": 5552,
      "ĠCache": 5553,
      "If": 5554,
      "Ġsever": 5555,
      "meth": 5556,
      "chunks": 5557,
      "Ġ[],": 5558,
      "lasso": 5559,
      "ĠOutput": 5560,
      "subset": 5561,
      "Ġscript": 5562,
      "assertIsNotNone": 5563,
      "Ġllm": 5564,
      "__(**": 5565,
      "Ġunderlying": 5566,
      "Arguments": 5567,
      "Th": 5568,
      "utation": 5569,
      "\",\"": 5570,
      "Ġisna": 5571,
      "toarray": 5572,
      "divisor": 5573,
      "inspace": 5574,
      "ĠSparseArray": 5575,
      "Ġcharacters": 5576,
      "likelihood": 5577,
      "enabled": 5578,
      "erce": 5579,
      "Ġ2048": 5580,
      "ĠMLP": 5581,
      "Method": 5582,
      "silu": 5583,
      "82": 5584,
      "etic": 5585,
      "centers": 5586,
      "ĠCONFIG": 5587,
      "vironment": 5588,
      "ArgumentParser": 5589,
      "alid": 5590,
      "loading": 5591,
      "Ġexactly": 5592,
      "arse": 5593,
      "__\",": 5594,
      "ĠPipelineTesterMixin": 5595,
      "It": 5596,
      "Ġnpt": 5597,
      "Ġreset": 5598,
      "Ġ*=": 5599,
      "ĠMeta": 5600,
      "Ġpercent": 5601,
      "dataloader": 5602,
      "lmo": 5603,
      "stderr": 5604,
      "Ġmerges": 5605,
      "reshaped": 5606,
      "ĠSpec": 5607,
      "Ġresolution": 5608,
      "matching": 5609,
      "EncoderConfig": 5610,
      "VLM": 5611,
      "naive": 5612,
      "ĠConv": 5613,
      "Ġsuite": 5614,
      "Ġspectrogram": 5615,
      "'],": 5616,
      "klass": 5617,
      "ffset": 5618,
      "Ġexplicitly": 5619,
      "pipe": 5620,
      "Ġph": 5621,
      "Ġwho": 5622,
      "KeyError": 5623,
      "sigmoid": 5624,
      "Ġlater": 5625,
      "structBlip": 5626,
      "PL": 5627,
      "als": 5628,
      "Ġdeep": 5629,
      "formable": 5630,
      "Ġgate": 5631,
      "ĠUser": 5632,
      "Sh": 5633,
      "fm": 5634,
      "stopping": 5635,
      "ivot": 5636,
      "ĠAccessing": 5637,
      "ressed": 5638,
      "Ġ`_": 5639,
      "ĠConstruct": 5640,
      "ãģĨ": 5641,
      "ĠTimedeltaIndex": 5642,
      "pairs": 5643,
      "Ġreprec": 5644,
      "Ġgc": 5645,
      "Conformer": 5646,
      "ticks": 5647,
      "Lab": 5648,
      "fmt": 5649,
      "stable": 5650,
      "revision": 5651,
      "Ġ\"[": 5652,
      "Ġpol": 5653,
      "isna": 5654,
      "ãģĤ": 5655,
      "Ġvals": 5656,
      "detection": 5657,
      "Ġdistances": 5658,
      "Ġlarger": 5659,
      "'}": 5660,
      "ption": 5661,
      "Ġbeta": 5662,
      "Integral": 5663,
      "svd": 5664,
      "detach": 5665,
      "ForMaskedLM": 5666,
      "'``": 5667,
      "`],": 5668,
      "Encoding": 5669,
      "duplicates": 5670,
      "ĠGenerate": 5671,
      "linspace": 5672,
      "Ġbot": 5673,
      "icator": 5674,
      "bounds": 5675,
      "tein": 5676,
      "Ġappend": 5677,
      "Only": 5678,
      "cp": 5679,
      "ĠMODEL": 5680,
      "Ġfitted": 5681,
      "Ġspan": 5682,
      "Ġcenters": 5683,
      "erged": 5684,
      "ln": 5685,
      "Ġrecor": 5686,
      "Ġtokenized": 5687,
      "Ġgrad": 5688,
      "Ġ\"<|": 5689,
      "encodings": 5690,
      "ctools": 5691,
      "Neo": 5692,
      "Iter": 5693,
      "gos": 5694,
      "mu": 5695,
      "constraints": 5696,
      "aving": 5697,
      "noise": 5698,
      ":\\": 5699,
      "lt": 5700,
      "ĠDtype": 5701,
      "2019": 5702,
      "reduction": 5703,
      "tuned": 5704,
      "NDArray": 5705,
      "eq": 5706,
      "Ġctx": 5707,
      "STD": 5708,
      "temporal": 5709,
      "ĠImageInput": 5710,
      "multiplier": 5711,
      "Ġmonotonic": 5712,
      "ĠBaseModelOutputWithPooling": 5713,
      "concatenate": 5714,
      "alanced": 5715,
      "stages": 5716,
      "chars": 5717,
      "ives": 5718,
      "Ġmock": 5719,
      "aw": 5720,
      "Ġsheet": 5721,
      "Ġbeam": 5722,
      "Ġhuggingface": 5723,
      "accuracy": 5724,
      "Ġrepresented": 5725,
      "finfo": 5726,
      "ceil": 5727,
      "tokenized": 5728,
      "ĠOver": 5729,
      "Ġoptionally": 5730,
      "OCO": 5731,
      "ĠImportError": 5732,
      "vt": 5733,
      "exact": 5734,
      "ilation": 5735,
      "ĠIs": 5736,
      "ĠPhi": 5737,
      "overflowing": 5738,
      "VVVV": 5739,
      "Ġtolerance": 5740,
      "+)": 5741,
      "kg": 5742,
      "Ġannotation": 5743,
      "Ġroll": 5744,
      "methods": 5745,
      "ĠCategoricalIndex": 5746,
      "Ġabsolute": 5747,
      "Ch": 5748,
      "OO": 5749,
      "TDetr": 5750,
      "field": 5751,
      "oting": 5752,
      "scan": 5753,
      "AND": 5754,
      "Ġtemplate": 5755,
      "imp": 5756,
      "export": 5757,
      "Ġext": 5758,
      "ifiers": 5759,
      "struction": 5760,
      "Ġdropna": 5761,
      "ĠTrainer": 5762,
      "ĠIterable": 5763,
      "Ġassociated": 5764,
      "ness": 5765,
      "Ġdates": 5766,
      "Ġinstalled": 5767,
      "ands": 5768,
      "caller": 5769,
      "Ġqkv": 5770,
      "warns": 5771,
      "Ġevaluation": 5772,
      "ĠOtherwise": 5773,
      "wl": 5774,
      "het": 5775,
      "board": 5776,
      "multiclass": 5777,
      "observed": 5778,
      "asfreq": 5779,
      "Ġdid": 5780,
      "Ġbetter": 5781,
      "UTC": 5782,
      "Ġpathlib": 5783,
      "stacked": 5784,
      "Ġiteration": 5785,
      "ayoutLMv": 5786,
      "QL": 5787,
      "auc": 5788,
      "world": 5789,
      "Ġauxiliary": 5790,
      "Ġpyarrow": 5791,
      "ĠViT": 5792,
      "Ġoverlap": 5793,
      "running": 5794,
      "Ġmodal": 5795,
      "truncation": 5796,
      "[::-": 5797,
      "Ġseveral": 5798,
      "Hybrid": 5799,
      "OCA": 5800,
      "ene": 5801,
      "Ġcapture": 5802,
      "texts": 5803,
      "Ġknow": 5804,
      "Ġ``'": 5805,
      "ĠHere": 5806,
      "termine": 5807,
      "Ġoverride": 5808,
      "ned": 5809,
      "Ġpropert": 5810,
      "ĠFa": 5811,
      "Ġmodified": 5812,
      "RES": 5813,
      "Ġinner": 5814,
      "Ġrs": 5815,
      "ĠMini": 5816,
      "Ġexists": 5817,
      "aware": 5818,
      "dst": 5819,
      "lastic": 5820,
      "Converter": 5821,
      "Ġgeneral": 5822,
      "Ġassume": 5823,
      "Ġmultimodal": 5824,
      "^^^^": 5825,
      "Ġpenalty": 5826,
      "((\"": 5827,
      "([(\"": 5828,
      "Ġanother": 5829,
      "ivate": 5830,
      "ĠSh": 5831,
      "ĠUsed": 5832,
      "Ġknown": 5833,
      "specific": 5834,
      "trast": 5835,
      "Real": 5836,
      "Integration": 5837,
      "enet": 5838,
      "alker": 5839,
      "ĠDecision": 5840,
      "20130101": 5841,
      ":.": 5842,
      "cost": 5843,
      "Ġlet": 5844,
      "igger": 5845,
      "iness": 5846,
      "Ġ21": 5847,
      "Ġchanged": 5848,
      "schema": 5849,
      "regex": 5850,
      "Ġsuffix": 5851,
      "rite": 5852,
      "OUTPUT": 5853,
      "ensure": 5854,
      "FAULT": 5855,
      "week": 5856,
      "Ġ29": 5857,
      "aged": 5858,
      "ardown": 5859,
      "Backend": 5860,
      "Run": 5861,
      "SON": 5862,
      "Ġwarn": 5863,
      "laced": 5864,
      "\"]).": 5865,
      "Ġstyler": 5866,
      "latex": 5867,
      "Ġallows": 5868,
      "Ġkeepdim": 5869,
      "ĠCategoricalDtype": 5870,
      ":,": 5871,
      "upper": 5872,
      "Ġseem": 5873,
      "Ġvar": 5874,
      "Ġskipped": 5875,
      "Ġbackward": 5876,
      "Ġhook": 5877,
      "''": 5878,
      "[[\"": 5879,
      "ri": 5880,
      "Ġes": 5881,
      "TensorType": 5882,
      "additional": 5883,
      "scoring": 5884,
      "Man": 5885,
      "ire": 5886,
      "vent": 5887,
      "ifies": 5888,
      "indexing": 5889,
      "comes": 5890,
      "ĠHT": 5891,
      "LogitsProcessor": 5892,
      "emove": 5893,
      "cer": 5894,
      "fs": 5895,
      "Ġarea": 5896,
      "INT": 5897,
      "Arrow": 5898,
      "rection": 5899,
      "isinstance": 5900,
      "posed": 5901,
      "ARD": 5902,
      "Ġhigher": 5903,
      "status": 5904,
      "Ġconvolut": 5905,
      "stats": 5906,
      "csc": 5907,
      "erical": 5908,
      "Ġpi": 5909,
      "Ġbroadcast": 5910,
      "Ġprepar": 5911,
      "clus": 5912,
      ":])": 5913,
      "ZZ": 5914,
      "xpu": 5915,
      "Ġoverwrite": 5916,
      "500": 5917,
      "Function": 5918,
      "stata": 5919,
      "ĠAttributeError": 5920,
      "ĠIMAGENET": 5921,
      "ãģĪ": 5922,
      "swin": 5923,
      "OCAB": 5924,
      "Ġinside": 5925,
      "Ġinternal": 5926,
      "track": 5927,
      "Ġ101": 5928,
      "Ġround": 5929,
      "qk": 5930,
      "tiles": 5931,
      "(\"_": 5932,
      "traceback": 5933,
      "Ġrepresenting": 5934,
      "mesh": 5935,
      "Dino": 5936,
      "Ġzeros": 5937,
      "Ġ{{": 5938,
      "trip": 5939,
      "indicator": 5940,
      "formative": 5941,
      "loads": 5942,
      "Ġâ": 5943,
      "Ġjob": 5944,
      "imate": 5945,
      "Ġenabled": 5946,
      "Ġdataframe": 5947,
      "ĠGot": 5948,
      "idxs": 5949,
      "Ġlearn": 5950,
      "composition": 5951,
      "ĠFast": 5952,
      "interleave": 5953,
      "joinpath": 5954,
      "Ġprior": 5955,
      "Ġ2022": 5956,
      "Fit": 5957,
      "cst": 5958,
      "algorithm": 5959,
      "ullable": 5960,
      "Ġ'.": 5961,
      "([[\"": 5962,
      "ĠEmbed": 5963,
      "Ġdoing": 5964,
      "unknown": 5965,
      "backward": 5966,
      "attribute": 5967,
      "ĠApply": 5968,
      ")})": 5969,
      "md": 5970,
      "Ġcsr": 5971,
      "Ġeigen": 5972,
      "Ġexperts": 5973,
      "__]": 5974,
      "ĠCI": 5975,
      "ĠHow": 5976,
      "Ġgreater": 5977,
      "rest": 5978,
      "isin": 5979,
      "ĠSo": 5980,
      "Ġindexing": 5981,
      "accelerate": 5982,
      "Ġtasks": 5983,
      "roundingDino": 5984,
      "\\)": 5985,
      "cents": 5986,
      "Ġdepend": 5987,
      "Ġtransformation": 5988,
      "bits": 5989,
      "system": 5990,
      "Ġ\"\"\"\\": 5991,
      "MT": 5992,
      "ĠCustom": 5993,
      "dedToken": 5994,
      "Proj": 5995,
      "Ġshifted": 5996,
      "pending": 5997,
      "openai": 5998,
      "modalities": 5999,
      "Out": 6000,
      "getattr": 6001,
      "ĠDeepseek": 6002,
      "]]],": 6003,
      "atron": 6004,
      "Ġexisting": 6005,
      "effici": 6006,
      "jor": 6007,
      "linalg": 6008,
      "resolve": 6009,
      "arguments": 6010,
      "torchvision": 6011,
      "ifact": 6012,
      "EncoderLayer": 6013,
      "absolute": 6014,
      "records": 6015,
      "segments": 6016,
      "DatetimeIndex": 6017,
      "Dense": 6018,
      "scheduler": 6019,
      "whisper": 6020,
      "serv": 6021,
      "Ġ-=": 6022,
      "hain": 6023,
      "CLAS": 6024,
      "ĠKeyError": 6025,
      "ls": 6026,
      "deprecated": 6027,
      "Ġstopping": 6028,
      "attrs": 6029,
      "Ġactually": 6030,
      "Ġpartic": 6031,
      "Ġrouted": 6032,
      "GradientBoosting": 6033,
      "iases": 6034,
      "efficients": 6035,
      "compare": 6036,
      "Ġtmpdirname": 6037,
      "merges": 6038,
      "Ġreverse": 6039,
      "Ġlat": 6040,
      "STR": 6041,
      "Tracker": 6042,
      "AB": 6043,
      "dgeT": 6044,
      "uf": 6045,
      "ane": 6046,
      "ĠDimension": 6047,
      "Ġpytorch": 6048,
      "ĠNon": 6049,
      "Ġclusters": 6050,
      "Ġoperations": 6051,
      "dgeTam": 6052,
      "Def": 6053,
      "messages": 6054,
      "Ġtied": 6055,
      "Ġcandidate": 6056,
      "Ġfully": 6057,
      "ĠPandas": 6058,
      "optic": 6059,
      "Ġregister": 6060,
      "Ġcurve": 6061,
      "Clip": 6062,
      "Ġfetch": 6063,
      "Ġmid": 6064,
      "Ġthree": 6065,
      ").__": 6066,
      "ERR": 6067,
      "Ġrunning": 6068,
      "deredDict": 6069,
      "DF": 6070,
      "Tip": 6071,
      "basic": 6072,
      "Ġpotent": 6073,
      "Ġfn": 6074,
      "ĠIdefics": 6075,
      "Ġones": 6076,
      "Ġparsed": 6077,
      "Ġnever": 6078,
      "Ġgradients": 6079,
      "atterns": 6080,
      "idence": 6081,
      "Forest": 6082,
      "grees": 6083,
      "201605": 6084,
      "codebooks": 6085,
      "'re": 6086,
      "Cho": 6087,
      "OTE": 6088,
      "ox": 6089,
      "pickle": 6090,
      "verbosity": 6091,
      "etrie": 6092,
      "matched": 6093,
      "}`": 6094,
      "artifact": 6095,
      "dispatch": 6096,
      "2023": 6097,
      "selected": 6098,
      "updated": 6099,
      "accumul": 6100,
      "big": 6101,
      "Ġfolder": 6102,
      "Ġden": 6103,
      "Ġtok": 6104,
      "ĠGPU": 6105,
      "ĠUni": 6106,
      "COD": 6107,
      "break": 6108,
      "git": 6109,
      "styler": 6110,
      "posit": 6111,
      "Ġpointer": 6112,
      "ync": 6113,
      "Begin": 6114,
      "Time": 6115,
      "bine": 6116,
      "pify": 6117,
      "rs": 6118,
      "Ġown": 6119,
      "positive": 6120,
      "Ġascending": 6121,
      "irseq": 6122,
      "=[[": 6123,
      "GE": 6124,
      "Ġ:])": 6125,
      "ĠPatch": 6126,
      "Ġstored": 6127,
      "shard": 6128,
      "Ġcats": 6129,
      "handler": 6130,
      "300": 6131,
      "dm": 6132,
      "rag": 6133,
      "coordinates": 6134,
      "Ġ('": 6135,
      "Ġconsistent": 6136,
      "Ġglobals": 6137,
      "Ġview": 6138,
      "Ġ01": 6139,
      "ĠSimple": 6140,
      "Ġfunctools": 6141,
      "penalty": 6142,
      "Ġregressor": 6143,
      "DecoderConfig": 6144,
      "Ġclustering": 6145,
      "peaker": 6146,
      "Manager": 6147,
      "png": 6148,
      "Ġtitle": 6149,
      "Ġio": 6150,
      "([(": 6151,
      "ĠGranite": 6152,
      "ĠEstimator": 6153,
      "active": 6154,
      "culate": 6155,
      "Ġreduction": 6156,
      "dependent": 6157,
      "FT": 6158,
      "}}": 6159,
      "reso": 6160,
      "construct": 6161,
      "Ġtemperature": 6162,
      "capture": 6163,
      "My": 6164,
      "OP": 6165,
      "Ġsuccess": 6166,
      "Ġrescal": 6167,
      "Ġcols": 6168,
      "fpn": 6169,
      "decimal": 6170,
      "ĠColumn": 6171,
      "vs": 6172,
      "anus": 6173,
      "Ġcum": 6174,
      "signed": 6175,
      "20160525": 6176,
      "include": 6177,
      "anh": 6178,
      "ros": 6179,
      "\")])": 6180,
      "ĠMust": 6181,
      "activations": 6182,
      "modular": 6183,
      "temperature": 6184,
      "Ġproduct": 6185,
      "Ġ4096": 6186,
      "Label": 6187,
      ")[\"": 6188,
      "cannot": 6189,
      "Ġetc": 6190,
      "ĠRemove": 6191,
      "Ġadapt": 6192,
      "quantizer": 6193,
      "=(\"": 6194,
      "ositional": 6195,
      "essian": 6196,
      "llm": 6197,
      "Ġseparate": 6198,
      "-{": 6199,
      "YP": 6200,
      "ĠMin": 6201,
      "ayes": 6202,
      "sph": 6203,
      "Ġvariables": 6204,
      "package": 6205,
      "release": 6206,
      "imin": 6207,
      "Ġ(*": 6208,
      "ĠName": 6209,
      "Ġreorder": 6210,
      "usiness": 6211,
      "perim": 6212,
      "double": 6213,
      "dle": 6214,
      "into": 6215,
      "ptr": 6216,
      "ĠThere": 6217,
      "egasus": 6218,
      "123": 6219,
      "ngram": 6220,
      "criptor": 6221,
      "GradientCheckpointingLayer": 6222,
      "Cal": 6223,
      "Day": 6224,
      "uation": 6225,
      "Ġsystem": 6226,
      "Ġoverwritten": 6227,
      "ĠSelect": 6228,
      "Ġconcaten": 6229,
      "Ġunexpected": 6230,
      "ĠNorm": 6231,
      "Ġfunctional": 6232,
      "LU": 6233,
      "vp": 6234,
      "Ġfree": 6235,
      "Ġwrong": 6236,
      "Ġcost": 6237,
      "Ġprefer": 6238,
      "ĠEnsure": 6239,
      "grouper": 6240,
      "Ġusage": 6241,
      "connect": 6242,
      "Ġ\"\"\",": 6243,
      "Ġflag": 6244,
      "fsdp": 6245,
      "gather": 6246,
      "Ġimpro": 6247,
      "ĠIN": 6248,
      "Means": 6249,
      "threads": 6250,
      "Ġ~": 6251,
      "Ġable": 6252,
      "Offset": 6253,
      "environ": 6254,
      "asr": 6255,
      "ĠPass": 6256,
      "Ġhour": 6257,
      "optimizer": 6258,
      "(?": 6259,
      "marg": 6260,
      "Ġ^": 6261,
      "imiter": 6262,
      "()))": 6263,
      "assignment": 6264,
      "Ġdataclasses": 6265,
      "tensionDtype": 6266,
      "ĠAdditional": 6267,
      "ites": 6268,
      "Ġcriterion": 6269,
      "Ġ...]]": 6270,
      "bottom": 6271,
      "Bool": 6272,
      "NE": 6273,
      "mmetric": 6274,
      "Ġworld": 6275,
      "urther": 6276,
      "Ġ(-": 6277,
      "olved": 6278,
      "ĠDE": 6279,
      "Ġgroupby": 6280,
      "crete": 6281,
      "ithmetic": 6282,
      "mkdir": 6283,
      "ton": 6284,
      "ween": 6285,
      "Ġincompatible": 6286,
      "Ġ`-": 6287,
      "Ġthread": 6288,
      "Ġcheckpoints": 6289,
      "windows": 6290,
      "VideoProcessor": 6291,
      "ĠRidge": 6292,
      "PreTraining": 6293,
      "}.{": 6294,
      "Hashable": 6295,
      "inst": 6296,
      "Ġ768": 6297,
      "issue": 6298,
      "spans": 6299,
      "multimask": 6300,
      "Ġreduce": 6301,
      "cocodataset": 6302,
      "BERT": 6303,
      "Ġ$": 6304,
      "Ġmis": 6305,
      "Ġstorage": 6306,
      "ivers": 6307,
      "convs": 6308,
      "callback": 6309,
      "Ġcurrently": 6310,
      "Ġdescription": 6311,
      "Ġcause": 6312,
      "400": 6313,
      "Ġincrease": 6314,
      "ĠPCA": 6315,
      "marker": 6316,
      "ious": 6317,
      "multilabel": 6318,
      "2001": 6319,
      "depths": 6320,
      "rinkage": 6321,
      "91": 6322,
      "Whether": 6323,
      "[{": 6324,
      "Ġneg": 6325,
      "ynomial": 6326,
      "Ġparticular": 6327,
      "],)": 6328,
      "presen": 6329,
      "combin": 6330,
      "crement": 6331,
      "Ġentries": 6332,
      "Ġtakes": 6333,
      ">\\": 6334,
      "Ġunused": 6335,
      "Testing": 6336,
      "Ġshared": 6337,
      "ĠĠĠĠĠĠĠĠĠĠĠĠĠĠĠĠĠĠĠĠĠĠĠĠĠ": 6338,
      "ĠRegression": 6339,
      "trastive": 6340,
      "Ġconvolutional": 6341,
      "ropped": 6342,
      "__\"]": 6343,
      "ĠXLM": 6344,
      "norms": 6345,
      "shuffle": 6346,
      "generic": 6347,
      "Choice": 6348,
      "fin": 6349,
      "igB": 6350,
      "Ġsa": 6351,
      "Exc": 6352,
      "ĠSeq": 6353,
      "Ġ1026": 6354,
      "=__": 6355,
      "Get": 6356,
      "ores": 6357,
      "deepspeed": 6358,
      "Ġseconds": 6359,
      "Ġ{%-": 6360,
      "runc": 6361,
      "ĠNumpy": 6362,
      "Ġbottom": 6363,
      ">=": 6364,
      "HT": 6365,
      "blip": 6366,
      "configs": 6367,
      "cesses": 6368,
      "Ġ:],": 6369,
      "Ġconstruct": 6370,
      "Ġsets": 6371,
      "tract": 6372,
      "Ġcharacter": 6373,
      "igBird": 6374,
      "pas": 6375,
      "Ġconsidered": 6376,
      "aff": 6377,
      "wrapped": 6378,
      "alk": 6379,
      "Ġbit": 6380,
      "ĠTh": 6381,
      "integration": 6382,
      "ĠArg": 6383,
      "cii": 6384,
      "dernBert": 6385,
      "NeoX": 6386,
      "ION": 6387,
      "Of": 6388,
      "nie": 6389,
      "aring": 6390,
      "elike": 6391,
      "ĠShould": 6392,
      "Ġ384": 6393,
      "using": 6394,
      "indent": 6395,
      "Ġserial": 6396,
      "DecoderCache": 6397,
      "difference": 6398,
      "ĠExpectations": 6399,
      "seg": 6400,
      "une": 6401,
      "ĠMon": 6402,
      "ĠWith": 6403,
      "Ġbounds": 6404,
      "ImageProcessing": 6405,
      "`]):": 6406,
      "early": 6407,
      "between": 6408,
      "\"'": 6409,
      ":\",": 6410,
      "remain": 6411,
      "Ġindividual": 6412,
      "...\")": 6413,
      "ĠLayer": 6414,
      "Ġfitting": 6415,
      "LAST": 6416,
      "TZ": 6417,
      "[__": 6418,
      "got": 6419,
      "decoded": 6420,
      "Ġmuch": 6421,
      "Ġdelay": 6422,
      "Ġfreqs": 6423,
      "Ġbackground": 6424,
      "decay": 6425,
      "duplicate": 6426,
      "Down": 6427,
      "PCA": 6428,
      "safetensors": 6429,
      "Ġinstances": 6430,
      "Ġextractor": 6431,
      "different": 6432,
      "199": 6433,
      "Mamba": 6434,
      "WAR": 6435,
      "luster": 6436,
      "inomial": 6437,
      "idi": 6438,
      "quet": 6439,
      "Ġfails": 6440,
      "cython": 6441,
      "UserWarning": 6442,
      "\\]": 6443,
      "fetch": 6444,
      "orn": 6445,
      "Ġmut": 6446,
      "empt": 6447,
      "timeError": 6448,
      "Ġchang": 6449,
      "Tokenized": 6450,
      "Ġaccuracy": 6451,
      "ImageProcessorKwargs": 6452,
      "YPES": 6453,
      "mar": 6454,
      "idf": 6455,
      "Ġmix": 6456,
      "unused": 6457,
      "aves": 6458,
      "Ġexpression": 6459,
      "()[\"__": 6460,
      "Buffer": 6461,
      "Po": 6462,
      "ride": 6463,
      "}_": 6464,
      "Ġorient": 6465,
      "(['": 6466,
      "okie": 6467,
      "tgt": 6468,
      "ithms": 6469,
      "Ernie": 6470,
      "Ġfloating": 6471,
      "trace": 6472,
      "Ġshown": 6473,
      "00000000": 6474,
      "Ġscorer": 6475,
      "Ġgood": 6476,
      "distributed": 6477,
      "Ġmakes": 6478,
      "Ġbsz": 6479,
      "384": 6480,
      "selector": 6481,
      "pleChoice": 6482,
      "Info": 6483,
      "Bytes": 6484,
      "Ġdiagonal": 6485,
      "Sub": 6486,
      "cheme": 6487,
      "ĠSeg": 6488,
      "ĠLong": 6489,
      "priate": 6490,
      "timelike": 6491,
      "Ġdetail": 6492,
      "Ġpackage": 6493,
      "fusion": 6494,
      "assertIn": 6495,
      "argsort": 6496,
      "\"]))": 6497,
      ")._": 6498,
      "plex": 6499,
      "ForObjectDetection": 6500,
      "gorithms": 6501,
      "lashAttention": 6502,
      "Ġcounts": 6503,
      "secut": 6504,
      "ctc": 6505,
      "pow": 6506,
      "ASK": 6507,
      "Ġformatted": 6508,
      "dapt": 6509,
      "tile": 6510,
      "Ġ[[-": 6511,
      "\"]])": 6512,
      "ĠPosition": 6513,
      "ĠWhisper": 6514,
      "ridSearchCV": 6515,
      "Ġregularization": 6516,
      "fname": 6517,
      "ali": 6518,
      "Ġfra": 6519,
      "otation": 6520,
      "regate": 6521,
      "Ġseqlen": 6522,
      "Ġdisp": 6523,
      "Ġchunks": 6524,
      "KE": 6525,
      "mol": 6526,
      "ãĤ": 6527,
      "Ġke": 6528,
      "lapping": 6529,
      "Ġrelease": 6530,
      "ĠCall": 6531,
      "Ġenfor": 6532,
      "ĠLasso": 6533,
      "inds": 6534,
      "124": 6535,
      "Ġshard": 6536,
      "Ġquantile": 6537,
      "ĠComput": 6538,
      "Ġaround": 6539,
      "Ġdetection": 6540,
      "TokenizedInput": 6541,
      "bart": 6542,
      "tab": 6543,
      "unded": 6544,
      "\"]},": 6545,
      "neck": 6546,
      "ensity": 6547,
      "aux": 6548,
      "glm": 6549,
      "siglip": 6550,
      "wi": 6551,
      "Ġupper": 6552,
      "FILES": 6553,
      "periment": 6554,
      "Date": 6555,
      "_`": 6556,
      "dinov": 6557,
      "rd": 6558,
      "ĠNew": 6559,
      "ForPreTraining": 6560,
      "filters": 6561,
      "ugins": 6562,
      "ibration": 6563,
      "NaN": 6564,
      "euclidean": 6565,
      "Ġslen": 6566,
      "Ġepoch": 6567,
      "Ġbranch": 6568,
      "Ġsession": 6569,
      "Ġcoords": 6570,
      "Ġsoftmax": 6571,
      "NetV": 6572,
      "hing": 6573,
      "ru": 6574,
      "aming": 6575,
      "assertFalse": 6576,
      "(\".\")": 6577,
      "Ġ:-": 6578,
      "ĠDummy": 6579,
      "setattr": 6580,
      "callable": 6581,
      "Ġupcast": 6582,
      "DEFAULT": 6583,
      "Ġ2011": 6584,
      "Drop": 6585,
      "cb": 6586,
      "gp": 6587,
      "Ġiou": 6588,
      "ridge": 6589,
      "Ġsqrt": 6590,
      "plexity": 6591,
      "font": 6592,
      "Ġ\"\")": 6593,
      "Ġnone": 6594,
      "()).": 6595,
      "Ġhad": 6596,
      "Ġcoefficients": 6597,
      "LMHead": 6598,
      "CLS": 6599,
      "Ġappropriate": 6600,
      "Ġpersistent": 6601,
      "Ġmgr": 6602,
      "Ġlos": 6603,
      "Ġ80": 6604,
      "SED": 6605,
      "Ġscaler": 6606,
      "Ġscaled": 6607,
      "coefs": 6608,
      "Ġsomething": 6609,
      "AssertionError": 6610,
      "Ġmpl": 6611,
      "urt": 6612,
      "placeholder": 6613,
      "Ġ2018": 6614,
      "integrations": 6615,
      ":-": 6616,
      "ait": 6617,
      "rectional": 6618,
      "ModelOutputWithPast": 6619,
      "ĠDefines": 6620,
      "Ġbeginning": 6621,
      "idirectional": 6622,
      ")[:,": 6623,
      "Ġtdi": 6624,
      "roc": 6625,
      "Ġperforming": 6626,
      "~~~~": 6627,
      "ĠEmbedding": 6628,
      "Mapping": 6629,
      "Table": 6630,
      "Ġsplits": 6631,
      "ural": 6632,
      "Ġtrained": 6633,
      "Ġapplying": 6634,
      "Ġbuilt": 6635,
      "Ġindicating": 6636,
      "truncated": 6637,
      "Ġshows": 6638,
      "ĠMaximum": 6639,
      "CR": 6640,
      "xlabel": 6641,
      "retain": 6642,
      "Ġeas": 6643,
      "Ġbad": 6644,
      "integers": 6645,
      "Ġkernels": 6646,
      "regressor": 6647,
      "Ġ2020": 6648,
      "Ġ----------------------------------------------------------------": 6649,
      "lars": 6650,
      "nums": 6651,
      "Ġâĸ": 6652,
      "Ġops": 6653,
      "ocabulary": 6654,
      "arian": 6655,
      "dimensions": 6656,
      "warmup": 6657,
      "Im": 6658,
      "Read": 6659,
      "catch": 6660,
      "increasing": 6661,
      "coord": 6662,
      "derbot": 6663,
      "lenderbot": 6664,
      "Ġtimezone": 6665,
      "ĠAutoImageProcessor": 6666,
      "Ġdesired": 6667,
      "Ġwhole": 6668,
      "IntegrationTest": 6669,
      "Skip": 6670,
      "Ġresulting": 6671,
      "Ġhard": 6672,
      "isting": 6673,
      "Ġrepresentations": 6674,
      "atermark": 6675,
      "Ġorigin": 6676,
      "serialization": 6677,
      "ĠNormal": 6678,
      "DOC": 6679,
      "retrie": 6680,
      "Ġfew": 6681,
      "Ġversionchanged": 6682,
      "Ġaggregation": 6683,
      "Ġevaluate": 6684,
      "Ġtaken": 6685,
      "Ġlosses": 6686,
      "TP": 6687,
      "ski": 6688,
      "Ġfalse": 6689,
      "Ġaff": 6690,
      "Ġgen": 6691,
      "Ġ...]": 6692,
      "Ġcomponent": 6693,
      "readonly": 6694,
      "writer": 6695,
      "arding": 6696,
      "Ġsection": 6697,
      "ordinal": 6698,
      "STAND": 6699,
      "commun": 6700,
      "Ġcleanup": 6701,
      "Number": 6702,
      "STANDARD": 6703,
      "EX": 6704,
      "LS": 6705,
      "TEST": 6706,
      "ja": 6707,
      "Ġdr": 6708,
      "Ġ26": 6709,
      "feats": 6710,
      "ĠInstructBlip": 6711,
      "Ġprojected": 6712,
      "sat": 6713,
      "uate": 6714,
      "sequent": 6715,
      "()[:-": 6716,
      "Ġenvironment": 6717,
      "Ġreshaped": 6718,
      "Ġ502": 6719,
      "Ġ60": 6720,
      "nearest": 6721,
      "ecute": 6722,
      "Ġentire": 6723,
      "cases": 6724,
      "modality": 6725,
      "ĠOrderedDict": 6726,
      "Tuple": 6727,
      "similar": 6728,
      "Ġsolution": 6729,
      "entence": 6730,
      "Ġtopk": 6731,
      "aly": 6732,
      "Ġduration": 6733,
      "ferences": 6734,
      "chain": 6735,
      "Ġrecurs": 6736,
      "Ġiterable": 6737,
      "ĠDepth": 6738,
      "Ġtransformed": 6739,
      "Ġindicate": 6740,
      "Ad": 6741,
      "KFold": 6742,
      "Swin": 6743,
      "ylabel": 6744,
      "recall": 6745,
      "impl": 6746,
      "urve": 6747,
      "power": 6748,
      "Ġexclude": 6749,
      "ĠOP": 6750,
      "Ġitself": 6751,
      "ordinate": 6752,
      "FutureWarning": 6753,
      "Pool": 6754,
      "Ġlayout": 6755,
      "Ġdest": 6756,
      "Ġdilation": 6757,
      "diabetes": 6758,
      "ĠPo": 6759,
      "ttributes": 6760,
      "Piece": 6761,
      "ascii": 6762,
      "Ġdepending": 6763,
      "ĠOpen": 6764,
      "Ġgive": 6765,
      "ĠBoo": 6766,
      "overlap": 6767,
      "TRIC": 6768,
      "ERROR": 6769,
      "Ġtur": 6770,
      "unstack": 6771,
      "Ġparts": 6772,
      "Ġadding": 6773,
      "Ġchunksize": 6774,
      "spectrogram": 6775,
      "presents": 6776,
      "115": 6777,
      "eck": 6778,
      "Ġci": 6779,
      "ived": 6780,
      "ĠĠĠĠĠĠĠĠĠĠĠĠĠĠĠĠĠĠĠĠĠĠĠĠĠĠĠĠĠĠĠĠĠĠĠ": 6781,
      "2006": 6782,
      "Struct": 6783,
      "Ġmulticlass": 6784,
      "andidates": 6785,
      "Load": 6786,
      "LINE": 6787,
      "orient": 6788,
      "Ġndim": 6789,
      "ametr": 6790,
      "Ġgamma": 6791,
      "ĠDatetimeArray": 6792,
      "Ġflags": 6793,
      "latents": 6794,
      "Ġagainst": 6795,
      "VQ": 6796,
      "Year": 6797,
      "atified": 6798,
      "three": 6799,
      "ĠMark": 6800,
      "tslibs": 6801,
      "funcs": 6802,
      "Ġgives": 6803,
      "Ġedit": 6804,
      "Llava": 6805,
      "nWhat": 6806,
      "atom": 6807,
      "Ġct": 6808,
      "Ġrf": 6809,
      "trust": 6810,
      "transforms": 6811,
      "ambiguous": 6812,
      "2005": 6813,
      "ĠAddedToken": 6814,
      "Ġsquared": 6815,
      "Lat": 6816,
      "sampled": 6817,
      "ession": 6818,
      "Ġmem": 6819,
      "imv": 6820,
      "ulation": 6821,
      "Ġdetermine": 6822,
      "Ġcop": 6823,
      "pository": 6824,
      "'),": 6825,
      "Ġli": 6826,
      "leted": 6827,
      "Ġmarg": 6828,
      "()`": 6829,
      "dimensional": 6830,
      "ĠNeed": 6831,
      "ĠEdgeTam": 6832,
      "`.\"": 6833,
      "normalizer": 6834,
      "([\"*": 6835,
      "Expected": 6836,
      "ĠRoberta": 6837,
      "consistent": 6838,
      "nalysis": 6839,
      "children": 6840,
      "sag": 6841,
      "til": 6842,
      "Ġmedi": 6843,
      "()):": 6844,
      "Ġlang": 6845,
      "ĠRTDetr": 6846,
      "Ġimputer": 6847,
      "Ġfaster": 6848,
      "Ġunknown": 6849,
      "ALL": 6850,
      "COCO": 6851,
      "Optional": 6852,
      "ao": 6853,
      "press": 6854,
      "Ġpickle": 6855,
      "Ġ2000": 6856,
      "interpolation": 6857,
      "document": 6858,
      "Ġlongest": 6859,
      "PAD": 6860,
      "Ġgoing": 6861,
      "expectation": 6862,
      ",\"": 6863,
      "></": 6864,
      "known": 6865,
      "Ġ300": 6866,
      "isson": 6867,
      "ĠJSON": 6868,
      "matplotlib": 6869,
      "mistral": 6870,
      "xc": 6871,
      "Ġ99": 6872,
      "Ġweek": 6873,
      "kew": 6874,
      "pars": 6875,
      "contin": 6876,
      "Dataset": 6877,
      "kwds": 6878,
      "DB": 6879,
      "oriz": 6880,
      "ĠFile": 6881,
      "transformed": 6882,
      "dumps": 6883,
      "768": 6884,
      "Ġcalculate": 6885,
      "ĠPaddingStrategy": 6886,
      "MM": 6887,
      "cg": 6888,
      "ocoder": 6889,
      "tlen": 6890,
      "rees": 6891,
      "ement": 6892,
      "ixtral": 6893,
      "Ġlin": 6894,
      "fraction": 6895,
      "Vectorizer": 6896,
      ",))": 6897,
      "EXPECTED": 6898,
      "TC": 6899,
      "âĶ": 6900,
      "aml": 6901,
      "ĠSeam": 6902,
      "Ġdir": 6903,
      "probability": 6904,
      "answering": 6905,
      "ĠGenerationConfig": 6906,
      ":]),": 6907,
      "frequency": 6908,
      "home": 6909,
      "Ġnumerical": 6910,
      "Ġloop": 6911,
      "Ġunless": 6912,
      "ĠUp": 6913,
      "Ġtexts": 6914,
      "tleneck": 6915,
      "ĠSeamlessM": 6916,
      "TRAN": 6917,
      "VI": 6918,
      "}),": 6919,
      "inline": 6920,
      "uned": 6921,
      "istGradientBoosting": 6922,
      "Ġ500": 6923,
      "seqlen": 6924,
      "ource": 6925,
      "Ġconsistency": 6926,
      "AndCrossAttentions": 6927,
      "wlViT": 6928,
      "XLM": 6929,
      "ster": 6930,
      "vised": 6931,
      "Ġtested": 6932,
      "([])": 6933,
      "****": 6934,
      "newaxis": 6935,
      "ĠBaseEstimator": 6936,
      "Ġreader": 6937,
      "operator": 6938,
      "*.": 6939,
      "Length": 6940,
      "pivot": 6941,
      "Ġpca": 6942,
      "stral": 6943,
      ").\"": 6944,
      "Ġdataclass": 6945,
      "ĠNames": 6946,
      "Ġ58": 6947,
      "Ġsetattr": 6948,
      "accents": 6949,
      "ANT": 6950,
      "which": 6951,
      "bucket": 6952,
      "ĠStandardScaler": 6953,
      "!\")": 6954,
      "Glue": 6955,
      "PAR": 6956,
      "Router": 6957,
      "Ġ\"#": 6958,
      "Ġfurther": 6959,
      "Ġ27": 6960,
      "Ġprov": 6961,
      "ĠFirst": 6962,
      "ESS": 6963,
      "Ġreplacement": 6964,
      "Ġterms": 6965,
      "1024": 6966,
      "clusive": 6967,
      "ĠComputes": 6968,
      "Ġhel": 6969,
      "semble": 6970,
      "degree": 6971,
      "styles": 6972,
      "Ġcf": 6973,
      "Ġmerged": 6974,
      "rant": 6975,
      "Ġvs": 6976,
      "ForCTC": 6977,
      "ources": 6978,
      "beit": 6979,
      "fully": 6980,
      "Ġcompatible": 6981,
      "precationWarning": 6982,
      "ĠHowever": 6983,
      "auxiliary": 6984,
      "omin": 6985,
      "Ġgit": 6986,
      "Ġconnected": 6987,
      "ĠFeature": 6988,
      "Unit": 6989,
      "Ġnamespace": 6990,
      "deepcopy": 6991,
      "Interpolation": 6992,
      "community": 6993,
      "auth": 6994,
      "mies": 6995,
      "Ġtimm": 6996,
      "Ġpt": 6997,
      "Ġinsert": 6998,
      "ImageInput": 6999,
      "xxx": 7000,
      "Ġprepared": 7001,
      "Latn": 7002,
      "BF": 7003,
      "Split": 7004,
      "sth": 7005,
      "Ġdot": 7006,
      "Ġsequential": 7007,
      "Report": 7008,
      "Ġindicates": 7009,
      "Ġconftest": 7010,
      "ĠGradientCheckpointingLayer": 7011,
      "Ġdraw": 7012,
      "Ġ{},": 7013,
      "Ġgu": 7014,
      "tack": 7015,
      "structed": 7016,
      "ĠĠĠĠĠĠĠĠĠĠĠĠĠĠĠĠĠĠ": 7017,
      "multimodal": 7018,
      "Ġmodality": 7019,
      "Match": 7020,
      "informative": 7021,
      "ract": 7022,
      "logical": 7023,
      "Ġ%(": 7024,
      "]['": 7025,
      "UNK": 7026,
      "Ġspecifying": 7027,
      "/{": 7028,
      "SGD": 7029,
      "pm": 7030,
      "ĠModelTesterMixin": 7031,
      "oring": 7032,
      "eng": 7033,
      "Ġ`{\"": 7034,
      "Ġ36": 7035,
      "component": 7036,
      "Ġbuf": 7037,
      "Collator": 7038,
      "Ġexcinfo": 7039,
      "lashAttentionKwargs": 7040,
      "HQ": 7041,
      "umb": 7042,
      "oles": 7043,
      "Ġindexes": 7044,
      "utoff": 7045,
      "Ġ------": 7046,
      "Ġchoose": 7047,
      "figure": 7048,
      "ãģĪãģĪ": 7049,
      "itespace": 7050,
      "Ac": 7051,
      "DO": 7052,
      "wd": 7053,
      "ĠWeight": 7054,
      "Ġversions": 7055,
      "contains": 7056,
      "Mean": 7057,
      "Ġincluding": 7058,
      "DECOD": 7059,
      "Ġcp": 7060,
      "Ġnet": 7061,
      "ĠMapping": 7062,
      "ĠVocabulary": 7063,
      "ĠFloat": 7064,
      "Ġhelpful": 7065,
      "ĠIgnore": 7066,
      "sthrough": 7067,
      "FE": 7068,
      "Ġrecomm": 7069,
      "Ġrepresents": 7070,
      "ĠSAM": 7071,
      "ĠURL": 7072,
      "Ġ2021": 7073,
      "bfgs": 7074,
      "secutive": 7075,
      "Fine": 7076,
      "Squ": 7077,
      "alt": 7078,
      "Ġfields": 7079,
      "ersation": 7080,
      "])),": 7081,
      "Ġgets": 7082,
      "subTest": 7083,
      "oob": 7084,
      "routed": 7085,
      "panoptic": 7086,
      "finetuned": 7087,
      "ãģĦãģĦ": 7088,
      "STRING": 7089,
      "iation": 7090,
      "lim": 7091,
      "xlm": 7092,
      "Ġincorrect": 7093,
      "Ġblk": 7094,
      "Ġcover": 7095,
      "Ġstrip": 7096,
      "tains": 7097,
      "mooth": 7098,
      "ĠTests": 7099,
      "rotate": 7100,
      "ĠDecisionTree": 7101,
      "bil": 7102,
      "balanced": 7103,
      "ale": 7104,
      "andbytes": 7105,
      "ĠLlava": 7106,
      "Ġcomplete": 7107,
      "Ġconverting": 7108,
      "CausalLMOutputWithPast": 7109,
      "unicode": 7110,
      "digits": 7111,
      "Callback": 7112,
      "Metadata": 7113,
      "NN": 7114,
      "nullable": 7115,
      "arize": 7116,
      "Ġput": 7117,
      "Ġslic": 7118,
      "otes": 7119,
      "0001": 7120,
      "ĠXt": 7121,
      "byte": 7122,
      "overflow": 7123,
      "Ġobserv": 7124,
      "AAAA": 7125,
      "way": 7126,
      "wlv": 7127,
      "ĠTarget": 7128,
      "Ġ/=": 7129,
      "subclass": 7130,
      "typing": 7131,
      "percentile": 7132,
      "NU": 7133,
      "TOR": 7134,
      "ansion": 7135,
      "Ġexport": 7136,
      "Ġnumpify": 7137,
      "Ġmapped": 7138,
      "ĠValid": 7139,
      "2009": 7140,
      "TextInput": 7141,
      "Ġplugin": 7142,
      "ĠQuery": 7143,
      "Ġidentical": 7144,
      "BoolTensor": 7145,
      "?\"": 7146,
      "Meta": 7147,
      "Ġincreasing": 7148,
      "ĠLayoutLMv": 7149,
      "Ġpreprocessing": 7150,
      "ĠNOTE": 7151,
      "[:]": 7152,
      "Predict": 7153,
      "Ġhapp": 7154,
      "Ġhaving": 7155,
      "Ġtrying": 7156,
      "disable": 7157,
      "Ġitertools": 7158,
      "ĠQuant": 7159,
      "Projection": 7160,
      "TZDtype": 7161,
      "'`": 7162,
      ")\":": 7163,
      "Siglip": 7164,
      "Ġder": 7165,
      "andwidth": 7166,
      "Ġimportant": 7167,
      "construction": 7168,
      "headers": 7169,
      "ocation": 7170,
      "Mixer": 7171,
      "ĠArrayLike": 7172,
      "BatchNorm": 7173,
      "ĠMethod": 7174,
      "Positional": 7175,
      "css": 7176,
      "dup": 7177,
      "|>\",": 7178,
      "Ġpc": 7179,
      "masking": 7180,
      "Ġencodings": 7181,
      "Ġtimeout": 7182,
      "Ġoverflow": 7183,
      "Ġcheckpointing": 7184,
      "PyTorch": 7185,
      "Ġbuil": 7186,
      "FORM": 7187,
      "Gpt": 7188,
      "Wrapper": 7189,
      "_\")": 7190,
      "Ġsyn": 7191,
      "resume": 7192,
      "ĠTree": 7193,
      "fft": 7194,
      "ProcessorKwargs": 7195,
      "crimin": 7196,
      "Imputer": 7197,
      "bc": 7198,
      "oh": 7199,
      "ulative": 7200,
      "Ġ(#": 7201,
      "resized": 7202,
      "ĠUsing": 7203,
      "lify": 7204,
      "docstrings": 7205,
      "akeet": 7206,
      "aggregation": 7207,
      "ĠTokenizer": 7208,
      "ein": 7209,
      "Ġever": 7210,
      "lain": 7211,
      "Ġexecut": 7212,
      "Ġthus": 7213,
      "ĠAttributes": 7214,
      "prev": 7215,
      "ĠMistral": 7216,
      "Ġxpaths": 7217,
      "TImage": 7218,
      "132": 7219,
      "Bin": 7220,
      "Hub": 7221,
      "hdf": 7222,
      "Ġfed": 7223,
      "Ġdta": 7224,
      "Ġdecode": 7225,
      "adjust": 7226,
      "Ġtorchify": 7227,
      "Ġsubsequent": 7228,
      "ĠCont": 7229,
      "mit": 7230,
      "ascending": 7231,
      "Ġpur": 7232,
      "isual": 7233,
      "tocol": 7234,
      "otst": 7235,
      "platform": 7236,
      "\"]})": 7237,
      "omet": 7238,
      "usage": 7239,
      "Ġworking": 7240,
      "NetConfig": 7241,
      "criptors": 7242,
      "Value": 7243,
      "hip": 7244,
      "ued": 7245,
      "ons": 7246,
      "Ġcore": 7247,
      "Ġ`{": 7248,
      "ART": 7249,
      "Ġtrees": 7250,
      "clear": 7251,
      "Ġdownsample": 7252,
      "otstrap": 7253,
      "ond": 7254,
      "Ġpan": 7255,
      "typeStr": 7256,
      "Ġparametr": 7257,
      "ĠModule": 7258,
      "LMOutput": 7259,
      "Ġaccount": 7260,
      "10000": 7261,
      "chedule": 7262,
      "MAE": 7263,
      "\"}),": 7264,
      "Ġflattened": 7265,
      ":].": 7266,
      "BIL": 7267,
      "_\",": 7268,
      "pct": 7269,
      "Ġrand": 7270,
      "ONE": 7271,
      "ĠFalcon": 7272,
      "METRIC": 7273,
      "Ġfiltered": 7274,
      "history": 7275,
      "ĠUniSpeech": 7276,
      "*\"])": 7277,
      "Writer": 7278,
      "gaussian": 7279,
      "more": 7280,
      "Ġsig": 7281,
      "ĠSin": 7282,
      "ĠSub": 7283,
      "egatron": 7284,
      "comparison": 7285,
      "ĠKosmos": 7286,
      "Ġconsists": 7287,
      "Ġflash": 7288,
      "Ġdetect": 7289,
      "HE": 7290,
      "flip": 7291,
      "pip": 7292,
      "Ġdig": 7293,
      "Ġauth": 7294,
      "Ġ`.": 7295,
      "ĠAI": 7296,
      "comment": 7297,
      "Ġapi": 7298,
      "Ġintern": 7299,
      "iterator": 7300,
      "ogram": 7301,
      "Ġpaths": 7302,
      "ĠPerceiver": 7303,
      "Ġ640": 7304,
      "ĠTokens": 7305,
      "Ġcalculated": 7306,
      "Identity": 7307,
      "MAGE": 7308,
      "InterpolationMode": 7309,
      "NB": 7310,
      "[(": 7311,
      "rase": 7312,
      "Ġefficient": 7313,
      "ĠTrans": 7314,
      "collection": 7315,
      "does": 7316,
      "AutoTokenizer": 7317,
      "Ġrecord": 7318,
      "IZ": 7319,
      "Spec": 7320,
      "Ġnb": 7321,
      "resnet": 7322,
      "\")[": 7323,
      "Ġcov": 7324,
      "aging": 7325,
      "factory": 7326,
      "conditional": 7327,
      "Level": 7328,
      "Ġfinally": 7329,
      "ometimes": 7330,
      "UBIC": 7331,
      "]\"),": 7332,
      "xpath": 7333,
      "tool": 7334,
      "ĠAudio": 7335,
      "Ġpreserve": 7336,
      "Ġmeasure": 7337,
      "intersection": 7338,
      "skipped": 7339,
      "Ġhandles": 7340,
      "blk": 7341,
      "Est": 7342,
      "Lasso": 7343,
      "MASK": 7344,
      "pat": 7345,
      "ãĥ": 7346,
      "recogn": 7347,
      "ital": 7348,
      "peg": 7349,
      "lems": 7350,
      "Ġbucke": 7351,
      "ĠTransformersKwargs": 7352,
      "ĠAgg": 7353,
      "ĠKernel": 7354,
      "ĠSizeDict": 7355,
      "mixin": 7356,
      "ĠEncoderDecoderCache": 7357,
      "cremental": 7358,
      "olesky": 7359,
      "Hi": 7360,
      "border": 7361,
      "decor": 7362,
      "ctx": 7363,
      "Ġsampled": 7364,
      "Ġddof": 7365,
      "Ġconsum": 7366,
      "datetimelike": 7367,
      "cats": 7368,
      "Ġdepths": 7369,
      "istry": 7370,
      "Ġmodify": 7371,
      "################################################################": 7372,
      "FO": 7373,
      "hide": 7374,
      "emantic": 7375,
      "Ġimportlib": 7376,
      "ached": 7377,
      "ĠND": 7378,
      "Trainer": 7379,
      "BICUBIC": 7380,
      "bd": 7381,
      "bn": 7382,
      "eigen": 7383,
      "fd": 7384,
      "nrows": 7385,
      "su": 7386,
      "Ġchain": 7387,
      "ished": 7388,
      "Ġridge": 7389,
      "ĠExtensionDtype": 7390,
      "defaults": 7391,
      "expanding": 7392,
      "Ġmarker": 7393,
      "Half": 7394,
      "Pandas": 7395,
      "YS": 7396,
      "Ġport": 7397,
      "entry": 7398,
      "lack": 7399,
      "()(": 7400,
      "Indexer": 7401,
      "ĠFunction": 7402,
      "192": 7403,
      "urveDisplay": 7404,
      "EA": 7405,
      "NO": 7406,
      "bboxes": 7407,
      "delay": 7408,
      "attns": 7409,
      "ĠTrunc": 7410,
      "parquet": 7411,
      "Ġthresh": 7412,
      "ably": 7413,
      "Ġmade": 7414,
      "ĠInter": 7415,
      "Ġkeypoint": 7416,
      "ĠStyler": 7417,
      "ĠModernBert": 7418,
      "ĠAssertionError": 7419,
      "?\",": 7420,
      "Found": 7421,
      "pin": 7422,
      "rule": 7423,
      "Ġhtml": 7424,
      "urity": 7425,
      "osite": 7426,
      "ĠWill": 7427,
      "INO": 7428,
      "ertia": 7429,
      "Ġvariant": 7430,
      "Ġvarious": 7431,
      "dependency": 7432,
      "Ġ=>": 7433,
      "lear": 7434,
      "Ġreturning": 7435,
      "sets": 7436,
      "Ġalphas": 7437,
      "modif": 7438,
      "partition": 7439,
      "Ġincluded": 7440,
      "FR": 7441,
      "glr": 7442,
      "uy": 7443,
      "itu": 7444,
      "Ġnat": 7445,
      "Ġwrapper": 7446,
      "Ġ({\"": 7447,
      "Ġreprodu": 7448,
      "Ġ117": 7449,
      "formatter": 7450,
      "numel": 7451,
      "usoid": 7452,
      "Ġconstraints": 7453,
      "ĠBu": 7454,
      "Ġalgos": 7455,
      "Ġchecking": 7456,
      "doctest": 7457,
      "binned": 7458,
      "Ġstdout": 7459,
      "Ġplaceholder": 7460,
      "ĠMetaClip": 7461,
      "Reader": 7462,
      "CS": 7463,
      "GU": 7464,
      "Glossary": 7465,
      "UB": 7466,
      "[~": 7467,
      "\\(": 7468,
      "sens": 7469,
      "Ġcut": 7470,
      "pet": 7471,
      "ident": 7472,
      "trial": 7473,
      "Ġcosine": 7474,
      "GroupBy": 7475,
      "Ġdownload": 7476,
      "kwarg": 7477,
      "ĠCausalLMOutputWithPast": 7478,
      "New": 7479,
      "Ġtp": 7480,
      "Ġtimestamp": 7481,
      "foot": 7482,
      "failures": 7483,
      "ĠGenerationTesterMixin": 7484,
      "ĠProcessor": 7485,
      "....": 7486,
      "Ġleaf": 7487,
      "olutions": 7488,
      "centered": 7489,
      "ĠConverts": 7490,
      "INEAR": 7491,
      "Format": 7492,
      "accumulation": 7493,
      "DynamicCache": 7494,
      "itt": 7495,
      "Ġbenchmark": 7496,
      "defs": 7497,
      "Ġ',": 7498,
      "Initial": 7499,
      "Ġintro": 7500,
      "Ġdims": 7501,
      "issparse": 7502,
      "lavor": 7503,
      "TRA": 7504,
      "PathLike": 7505,
      "lvp": 7506,
      "ĠSuper": 7507,
      "sphx": 7508,
      "Glm": 7509,
      "Prompt": 7510,
      "ade": 7511,
      "bust": 7512,
      "dy": 7513,
      "radius": 7514,
      "thers": 7515,
      "ĠTransformers": 7516,
      "preprocessor": 7517,
      "Ġconstraint": 7518,
      "Ġdivisible": 7519,
      "Ġappear": 7520,
      "ridgeT": 7521,
      "Ġbehaviour": 7522,
      "Ġattend": 7523,
      "ãģĨãģĨ": 7524,
      "ĠBoolean": 7525,
      "VQVA": 7526,
      "ridgeTower": 7527,
      ")\")": 7528,
      ">\"`):": 7529,
      "See": 7530,
      "ij": 7531,
      "instruct": 7532,
      "alues": 7533,
      "Ġwon": 7534,
      "(\"`": 7535,
      "=\"<": 7536,
      "===": 7537,
      "calls": 7538,
      "bitrary": 7539,
      "Ġenforces": 7540,
      ")()": 7541,
      "Des": 7542,
      "Transformers": 7543,
      "XL": 7544,
      "Ġoc": 7545,
      "parts": 7546,
      "Ġenough": 7547,
      "astic": 7548,
      "Ġuniques": 7549,
      "Ġ10000": 7550,
      "nans": 7551,
      "ToText": 7552,
      "Ġ%}{": 7553,
      "305": 7554,
      "permutation": 7555,
      "AutoModel": 7556,
      "Ġlegend": 7557,
      "GS": 7558,
      "Pl": 7559,
      "Rep": 7560,
      "ĠErnie": 7561,
      "Ġcsv": 7562,
      "oment": 7563,
      "ĠBigBird": 7564,
      "initialized": 7565,
      "Ġrenamed": 7566,
      "ĠSpeechT": 7567,
      "Ġrolling": 7568,
      "similarity": 7569,
      "sheet": 7570,
      "inja": 7571,
      "Ġdensity": 7572,
      "ket": 7573,
      "chemy": 7574,
      "ĠHand": 7575,
      "Ġ97": 7576,
      "cret": 7577,
      "legacy": 7578,
      "DTYPES": 7579,
      "Ġduplicate": 7580,
      "orizon": 7581,
      "Ġinternally": 7582,
      "vol": 7583,
      "degrees": 7584,
      "leon": 7585,
      "Ġsil": 7586,
      "\",)": 7587,
      "Ġdep": 7588,
      "pline": 7589,
      "Ġuntil": 7590,
      "ĠHashable": 7591,
      "normalization": 7592,
      "DIR": 7593,
      "quantize": 7594,
      "ĠSince": 7595,
      "Make": 7596,
      "ni": 7597,
      "Ġspaces": 7598,
      "ilter": 7599,
      "ĠSD": 7600,
      "ĠScal": 7601,
      "ĠCPU": 7602,
      "ĠExcel": 7603,
      "255": 7604,
      "relation": 7605,
      "ĠBatchEncoding": 7606,
      "ĠLabel": 7607,
      "Ġcombined": 7608,
      "BILINEAR": 7609,
      "Bo": 7610,
      "GroundingDino": 7611,
      "Trans": 7612,
      "au": 7613,
      "bstract": 7614,
      "Ġschema": 7615,
      "fake": 7616,
      "background": 7617,
      "Ġ[[[": 7618,
      "openml": 7619,
      "epochs": 7620,
      "From": 7621,
      "ball": 7622,
      "Ġpe": 7623,
      "decomposition": 7624,
      "Ġexported": 7625,
      "Ġcolors": 7626,
      "ĠFlava": 7627,
      "ĠRaisesGroup": 7628,
      "216": 7629,
      "All": 7630,
      "CurveDisplay": 7631,
      "creso": 7632,
      "xP": 7633,
      "Ġpop": 7634,
      "Ġfrozen": 7635,
      "urations": 7636,
      "prop": 7637,
      "prows": 7638,
      "ĠSGD": 7639,
      "variable": 7640,
      "Ġperformed": 7641,
      "RopeParameters": 7642,
      "ĠChinese": 7643,
      "coefficient": 7644,
      "Ġisn": 7645,
      "adam": 7646,
      "ĠLet": 7647,
      "ĠBart": 7648,
      "Ġcomment": 7649,
      "convolution": 7650,
      "rides": 7651,
      "ENAI": 7652,
      "Ġaccelerate": 7653,
      "ĠParameter": 7654,
      "ORT": 7655,
      "Ġassignment": 7656,
      "ĠPrepare": 7657,
      "Ġlargest": 7658,
      "Dummy": 7659,
      "VERS": 7660,
      "rint": 7661,
      "gether": 7662,
      "uniques": 7663,
      "pyxl": 7664,
      "Ġrather": 7665,
      "ĠHidden": 7666,
      "1234": 7667,
      "Ġaccess": 7668,
      "lorence": 7669,
      "dr": 7670,
      "fr": 7671,
      "pil": 7672,
      "uan": 7673,
      "urope": 7674,
      "anit": 7675,
      "Ġindependent": 7676,
      "assign": 7677,
      "ĠSimilar": 7678,
      "ĠFixture": 7679,
      "Ġshare": 7680,
      "required": 7681,
      "green": 7682,
      "istics": 7683,
      "Ġunicode": 7684,
      "bitsandbytes": 7685,
      "Ġsaid": 7686,
      "WARN": 7687,
      "An": 7688,
      "Do": 7689,
      "Hey": 7690,
      "Ġlight": 7691,
      "Ġcoordinate": 7692,
      "MoE": 7693,
      "terminal": 7694,
      "ĠCalculate": 7695,
      "Ġedits": 7696,
      "SAMPLE": 7697,
      "Skipping": 7698,
      "Hour": 7699,
      "rust": 7700,
      "ufunc": 7701,
      "ĠModelOutput": 7702,
      "debug": 7703,
      "Ġcm": 7704,
      "props": 7705,
      "Ġpropag": 7706,
      "timezone": 7707,
      "125": 7708,
      "333": 7709,
      "Recor": 7710,
      "MultipleChoice": 7711,
      "blobs": 7712,
      "pkg": 7713,
      "research": 7714,
      "chine": 7715,
      "Ġbody": 7716,
      "ameleon": 7717,
      "macro": 7718,
      "ĠDis": 7719,
      "ĠPlot": 7720,
      "Ġextracted": 7721,
      "Ġtmpdir": 7722,
      "Ġattempt": 7723,
      "Ġsquare": 7724,
      "uidance": 7725,
      "lasticNet": 7726,
      "Ġpotential": 7727,
      "MF": 7728,
      "hu": 7729,
      "entrant": 7730,
      "cover": 7731,
      "division": 7732,
      "argmin": 7733,
      "ĠRotary": 7734,
      "batches": 7735,
      "offload": 7736,
      "Ġrelated": 7737,
      "Ġconnect": 7738,
      "consistency": 7739,
      "vergenceWarning": 7740,
      "ĠTrainingArguments": 7741,
      ",,": 7742,
      "cli": 7743,
      "Ġdiv": 7744,
      "ĠEmu": 7745,
      "host": 7746,
      "fixed": 7747,
      "Ġroc": 7748,
      "delimiter": 7749,
      "nnotation": 7750,
      "neither": 7751,
      "ĠJanus": 7752,
      "Ġmypy": 7753,
      "breaks": 7754,
      "ĠGraniteMoe": 7755,
      "âĶĢ": 7756,
      ");": 7757,
      "cfg": 7758,
      "tanh": 7759,
      "ĠSample": 7760,
      "ĠSave": 7761,
      "Ġ33": 7762,
      "Ġreshape": 7763,
      "freqs": 7764,
      "Import": 7765,
      "Ġconcatenated": 7766,
      "passthrough": 7767,
      "ĠUpdate": 7768,
      "METRICS": 7769,
      "Ġatom": 7770,
      "})\"": 7771,
      "dummies": 7772,
      "aNext": 7773,
      "lavaNext": 7774,
      "searchsorted": 7775,
      "Ġissues": 7776,
      "Ġreplaced": 7777,
      "Formatter": 7778,
      "thresholds": 7779,
      "Compute": 7780,
      "Ġchanges": 7781,
      ".(": 7782,
      "ATION": 7783,
      "fps": 7784,
      "nThe": 7785,
      "Ġte": 7786,
      "remo": 7787,
      "edu": 7788,
      "Ġcapt": 7789,
      "Ġothers": 7790,
      "upsample": 7791,
      "Ġgr": 7792,
      "Ġunnormalized": 7793,
      "ĠVit": 7794,
      "]]`,": 7795,
      "IndexError": 7796,
      "chunked": 7797,
      "BertModel": 7798,
      "PredictionHead": 7799,
      "ĠSDPA": 7800,
      "Ridge": 7801,
      "Ã©": 7802,
      "Ġpick": 7803,
      "Ġfont": 7804,
      "chan": 7805,
      "Ġdat": 7806,
      "ortran": 7807,
      "ĠSwin": 7808,
      "]]]:": 7809,
      "need": 7810,
      "scaler": 7811,
      "Ġconnection": 7812,
      "ArrowDtype": 7813,
      "Ġ;": 7814,
      "sem": 7815,
      "chinese": 7816,
      "Ġdegree": 7817,
      "Ġ)[": 7818,
      "Ġguide": 7819,
      "ĠDon": 7820,
      "iven": 7821,
      "convnext": 7822,
      "}\".": 7823,
      "Ġcorrespond": 7824,
      "Ġtherefore": 7825,
      "ĠRuntimeError": 7826,
      "ABCD": 7827,
      "ddof": 7828,
      "xs": 7829,
      "asof": 7830,
      "Ġstability": 7831,
      "Ġ'''": 7832,
      "ĠWrite": 7833,
      "ĠVer": 7834,
      "Ġlogit": 7835,
      "teardown": 7836,
      "Ġfilled": 7837,
      "manual": 7838,
      "OCESS": 7839,
      "ĠDataCollator": 7840,
      "CONFIG": 7841,
      "patterns": 7842,
      "ujson": 7843,
      "Ġ\"/": 7844,
      "raps": 7845,
      "raph": 7846,
      "Ġensemble": 7847,
      "Ġtokenization": 7848,
      "floating": 7849,
      "isted": 7850,
      "ĠFinal": 7851,
      "Ġshutil": 7852,
      "Ġface": 7853,
      "Ġtruncate": 7854,
      "Ġmarks": 7855,
      "ĠDefaults": 7856,
      "DTYPE": 7857,
      "hours": 7858,
      "Item": 7859,
      "Default": 7860,
      "401": 7861,
      "Min": 7862,
      "cus": 7863,
      "arily": 7864,
      "reentrant": 7865,
      "Ġ\"(": 7866,
      "lom": 7867,
      "ĠOS": 7868,
      "angle": 7869,
      "Ġlogic": 7870,
      "Ġinterpre": 7871,
      "uffers": 7872,
      "lectra": 7873,
      "Ġmultioutput": 7874,
      "unciation": 7875,
      "AAPL": 7876,
      "ĠSetting": 7877,
      "CD": 7878,
      "MOD": 7879,
      "Mini": 7880,
      "ians": 7881,
      "mut": 7882,
      "nel": 7883,
      "}]": 7884,
      "onunciation": 7885,
      "chastic": 7886,
      "Ġsol": 7887,
      "ĠThen": 7888,
      "iano": 7889,
      "repeats": 7890,
      "ĠMock": 7891,
      "ĠstartingMonth": 7892,
      "TImageProcessor": 7893,
      "simp": 7894,
      "uke": 7895,
      "ÄĬ": 7896,
      "lained": 7897,
      "unsupported": 7898,
      "Ġendif": 7899,
      "Ġcoerce": 7900,
      "ForMultipleChoice": 7901,
      "Dec": 7902,
      "evaluate": 7903,
      "greater": 7904,
      "NotImplementedError": 7905,
      "Ġchosen": 7906,
      "cccc": 7907,
      "autoc": 7908,
      "pdrop": 7909,
      "atol": 7910,
      "poss": 7911,
      "oshi": 7912,
      "ĠDate": 7913,
      "ĠLfm": 7914,
      "Ġparsing": 7915,
      "outliers": 7916,
      "gged": 7917,
      "TestMixin": 7918,
      "COMPLE": 7919,
      "(\"./": 7920,
      "'\\": 7921,
      "DER": 7922,
      "rf": 7923,
      "Ġpublic": 7924,
      "Ġwrap": 7925,
      "iso": 7926,
      "Ġnumba": 7927,
      "ĠGQA": 7928,
      "INIT": 7929,
      "etry": 7930,
      "converted": 7931,
      "Ġdiscrete": 7932,
      "Ġhandling": 7933,
      "ĠStrOptions": 7934,
      "Ġassigned": 7935,
      "entencePiece": 7936,
      "Ġpurpose": 7937,
      "SFORM": 7938,
      "lish": 7939,
      "reverse": 7940,
      "Ġcy": 7941,
      "Ġclip": 7942,
      "Ġbel": 7943,
      "\")[\"": 7944,
      "rained": 7945,
      "Ġprogress": 7946,
      "Ġvars": 7947,
      "tri": 7948,
      "ĠGridSearchCV": 7949,
      "Ġidentifier": 7950,
      "Ġwriter": 7951,
      "earest": 7952,
      "dependencies": 7953,
      "repeated": 7954,
      "putation": 7955,
      "lict": 7956,
      "Ġexten": 7957,
      "timeout": 7958,
      "combine": 7959,
      "Ġusers": 7960,
      "ĠMaskFormer": 7961,
      "Ġcommand": 7962,
      "distribution": 7963,
      "caption": 7964,
      "Ġsvd": 7965,
      "Sat": 7966,
      "ius": 7967,
      "lody": 7968,
      "Ġbug": 7969,
      "proc": 7970,
      "ĠSqu": 7971,
      "Ġconst": 7972,
      "importances": 7973,
      "Ġspecifies": 7974,
      "ngine": 7975,
      "ĠUnused": 7976,
      "Ġsegments": 7977,
      "excinfo": 7978,
      "ibrated": 7979,
      "Gre": 7980,
      "lbfgs": 7981,
      "scheme": 7982,
      "à¤": 7983,
      "Ġcare": 7984,
      "Ġdev": 7985,
      "Ġrepository": 7986,
      "Ġ[{": 7987,
      "ĠOpt": 7988,
      "Instruct": 7989,
      "ĠVOCAB": 7990,
      "Ġtextwrap": 7991,
      "============": 7992,
      "SIFI": 7993,
      "lustering": 7994,
      "HA": 7995,
      "OM": 7996,
      "Or": 7997,
      "ount": 7998,
      "orth": 7999
    },
    "merges": [
      [
        "Ġ",
        "Ġ"
      ],
      [
        "ĠĠ",
        "ĠĠ"
      ],
      [
        "č",
        "Ċ"
      ],
      [
        "ĠĠ",
        "Ġ"
      ],
      [
        "ĠĠĠĠ",
        "ĠĠĠ"
      ],
      [
        "i",
        "n"
      ],
      [
        "o",
        "n"
      ],
      [
        "s",
        "e"
      ],
      [
        "a",
        "t"
      ],
      [
        "o",
        "r"
      ],
      [
        "e",
        "s"
      ],
      [
        "e",
        "n"
      ],
      [
        "e",
        "r"
      ],
      [
        "Ġ",
        "t"
      ],
      [
        "ĠĠĠĠ",
        "ĠĠĠĠĠĠĠ"
      ],
      [
        "Ġ",
        "="
      ],
      [
        "d",
        "e"
      ],
      [
        "a",
        "l"
      ],
      [
        "a",
        "r"
      ],
      [
        "u",
        "t"
      ],
      [
        "i",
        "on"
      ],
      [
        "s",
        "t"
      ],
      [
        "r",
        "e"
      ],
      [
        "a",
        "n"
      ],
      [
        "h",
        "e"
      ],
      [
        "Ġ",
        "i"
      ],
      [
        "a",
        "s"
      ],
      [
        "l",
        "f"
      ],
      [
        "e",
        "d"
      ],
      [
        "se",
        "lf"
      ],
      [
        "i",
        "t"
      ],
      [
        "Ġ",
        "\""
      ],
      [
        "r",
        "o"
      ],
      [
        "Ġ",
        "c"
      ],
      [
        "in",
        "g"
      ],
      [
        "p",
        "e"
      ],
      [
        "Ġ",
        "n"
      ],
      [
        "Ġ",
        "p"
      ],
      [
        "a",
        "m"
      ],
      [
        "i",
        "g"
      ],
      [
        "Ġ",
        "f"
      ],
      [
        "c",
        "t"
      ],
      [
        "Ġ",
        "in"
      ],
      [
        "i",
        "d"
      ],
      [
        "c",
        "h"
      ],
      [
        "l",
        "e"
      ],
      [
        "Ġ",
        "m"
      ],
      [
        "p",
        "ut"
      ],
      [
        "ĠĠĠĠ",
        "ĠĠĠĠĠĠĠĠĠĠĠ"
      ],
      [
        "Ġ",
        "self"
      ],
      [
        "Ġ",
        "s"
      ],
      [
        "i",
        "z"
      ],
      [
        "Ġ",
        "o"
      ],
      [
        "Ġt",
        "he"
      ],
      [
        "es",
        "t"
      ],
      [
        "g",
        "e"
      ],
      [
        "i",
        "m"
      ],
      [
        "Ġ",
        "d"
      ],
      [
        "l",
        "o"
      ],
      [
        "en",
        "t"
      ],
      [
        "\"",
        ","
      ],
      [
        "r",
        "a"
      ],
      [
        ")",
        ":"
      ],
      [
        "Ġ",
        "e"
      ],
      [
        "c",
        "o"
      ],
      [
        "-",
        "-"
      ],
      [
        "c",
        "e"
      ],
      [
        "Ġt",
        "o"
      ],
      [
        "o",
        "de"
      ],
      [
        "Ġ",
        "w"
      ],
      [
        "u",
        "r"
      ],
      [
        "u",
        "l"
      ],
      [
        "Ġ",
        "("
      ],
      [
        "Ġ",
        "de"
      ],
      [
        "l",
        "a"
      ],
      [
        "Ġ",
        "b"
      ],
      [
        "on",
        "f"
      ],
      [
        "u",
        "m"
      ],
      [
        "onf",
        "ig"
      ],
      [
        "ode",
        "l"
      ],
      [
        "on",
        "e"
      ],
      [
        "iz",
        "e"
      ],
      [
        "Ġ",
        "a"
      ],
      [
        "Ġ",
        "re"
      ],
      [
        "an",
        "d"
      ],
      [
        "Ġ",
        "1"
      ],
      [
        "q",
        "u"
      ],
      [
        "Ġ",
        "#"
      ],
      [
        "am",
        "e"
      ],
      [
        "at",
        "t"
      ],
      [
        "se",
        "r"
      ],
      [
        "Ġi",
        "s"
      ],
      [
        "p",
        "t"
      ],
      [
        "v",
        "al"
      ],
      [
        "at",
        "e"
      ],
      [
        "i",
        "c"
      ],
      [
        "i",
        "s"
      ],
      [
        "r",
        "es"
      ],
      [
        "N",
        "one"
      ],
      [
        "a",
        "d"
      ],
      [
        "u",
        "e"
      ],
      [
        "t",
        "o"
      ],
      [
        "y",
        "pe"
      ],
      [
        "Ġ",
        "["
      ],
      [
        "u",
        "n"
      ],
      [
        "ul",
        "t"
      ],
      [
        "e",
        "l"
      ],
      [
        "k",
        "en"
      ],
      [
        "Ġde",
        "f"
      ],
      [
        "o",
        "t"
      ],
      [
        "Ġi",
        "f"
      ],
      [
        "s",
        "or"
      ],
      [
        "Ġo",
        "f"
      ],
      [
        "m",
        "p"
      ],
      [
        "or",
        "ch"
      ],
      [
        "a",
        "ge"
      ],
      [
        "t",
        "h"
      ],
      [
        "]",
        ","
      ],
      [
        "d",
        "en"
      ],
      [
        "or",
        "m"
      ],
      [
        "at",
        "ion"
      ],
      [
        "Ġ",
        "None"
      ],
      [
        "ut",
        "put"
      ],
      [
        "s",
        "ize"
      ],
      [
        "Ġ",
        "T"
      ],
      [
        "(",
        ")"
      ],
      [
        "\"",
        ")"
      ],
      [
        "id",
        "den"
      ],
      [
        "t",
        "ype"
      ],
      [
        "h",
        "idden"
      ],
      [
        "d",
        "i"
      ],
      [
        "l",
        "i"
      ],
      [
        "or",
        "t"
      ],
      [
        "d",
        "er"
      ],
      [
        "o",
        "l"
      ],
      [
        "ro",
        "m"
      ],
      [
        "Ġf",
        "or"
      ],
      [
        "k",
        "e"
      ],
      [
        "Ġ",
        ")"
      ],
      [
        "t",
        "ur"
      ],
      [
        "Ġ",
        "`"
      ],
      [
        "ent",
        "ion"
      ],
      [
        "tur",
        "n"
      ],
      [
        "ser",
        "t"
      ],
      [
        "as",
        "s"
      ],
      [
        "\"",
        "\""
      ],
      [
        "p",
        "o"
      ],
      [
        "e",
        "x"
      ],
      [
        "h",
        "t"
      ],
      [
        "Ġ",
        "2"
      ],
      [
        "as",
        "sert"
      ],
      [
        "as",
        "k"
      ],
      [
        "st",
        "r"
      ],
      [
        "t",
        "est"
      ],
      [
        "at",
        "a"
      ],
      [
        "att",
        "ention"
      ],
      [
        "0",
        "0"
      ],
      [
        "u",
        "p"
      ],
      [
        "Ġ",
        "*"
      ],
      [
        "e",
        "m"
      ],
      [
        "it",
        "h"
      ],
      [
        "Ġe",
        "x"
      ],
      [
        "er",
        "s"
      ],
      [
        "i",
        "l"
      ],
      [
        "\"",
        ":"
      ],
      [
        "in",
        "t"
      ],
      [
        "c",
        "k"
      ],
      [
        "de",
        "x"
      ],
      [
        "at",
        "ch"
      ],
      [
        "Ġ",
        "0"
      ],
      [
        "c",
        "onfig"
      ],
      [
        "ion",
        "al"
      ],
      [
        "Ġ",
        "-"
      ],
      [
        "_",
        "_"
      ],
      [
        "--",
        "--"
      ],
      [
        "Ġre",
        "turn"
      ],
      [
        "at",
        "es"
      ],
      [
        "ig",
        "ht"
      ],
      [
        "h",
        "a"
      ],
      [
        "l",
        "ass"
      ],
      [
        "p",
        "y"
      ],
      [
        "o",
        "d"
      ],
      [
        "Ġn",
        "ot"
      ],
      [
        "en",
        "sor"
      ],
      [
        "Ġ",
        "and"
      ],
      [
        "(",
        "\""
      ],
      [
        "d",
        "ing"
      ],
      [
        "ar",
        "g"
      ],
      [
        "l",
        "en"
      ],
      [
        "c",
        "es"
      ],
      [
        "p",
        "ro"
      ],
      [
        "st",
        "ates"
      ],
      [
        "co",
        "der"
      ],
      [
        "r",
        "an"
      ],
      [
        "ĠĠĠĠ",
        "ĠĠĠĠĠĠĠĠĠĠĠĠĠĠĠ"
      ],
      [
        "to",
        "ken"
      ],
      [
        "r",
        "ue"
      ],
      [
        "pt",
        "ional"
      ],
      [
        "p",
        "ar"
      ],
      [
        "b",
        "ed"
      ],
      [
        "in",
        "put"
      ],
      [
        "la",
        "y"
      ],
      [
        ")",
        ","
      ],
      [
        "m",
        "ask"
      ],
      [
        "Ġm",
        "odel"
      ],
      [
        "p",
        "l"
      ],
      [
        "v",
        "i"
      ],
      [
        "ra",
        "y"
      ],
      [
        "ct",
        "ed"
      ],
      [
        "Ġi",
        "mp"
      ],
      [
        "ex",
        "t"
      ],
      [
        "ke",
        "y"
      ],
      [
        "t",
        "orch"
      ],
      [
        "m",
        "odel"
      ],
      [
        "c",
        "he"
      ],
      [
        "ge",
        "t"
      ],
      [
        ".",
        "."
      ],
      [
        "Ġt",
        "h"
      ],
      [
        "la",
        "b"
      ],
      [
        "Ġt",
        "est"
      ],
      [
        "m",
        "a"
      ],
      [
        "Ġin",
        "put"
      ],
      [
        "f",
        "rom"
      ],
      [
        "Ġ",
        "A"
      ],
      [
        "u",
        "es"
      ],
      [
        "Ġ",
        "se"
      ],
      [
        "=",
        "\""
      ],
      [
        "id",
        "s"
      ],
      [
        "Ġ",
        "S"
      ],
      [
        "res",
        "ult"
      ],
      [
        "Ġ",
        "I"
      ],
      [
        "f",
        "orm"
      ],
      [
        "Ġw",
        "ith"
      ],
      [
        ">",
        ">"
      ],
      [
        "al",
        "l"
      ],
      [
        "val",
        "ues"
      ],
      [
        "Ġ",
        "O"
      ],
      [
        "a",
        "b"
      ],
      [
        "Ġc",
        "onfig"
      ],
      [
        "p",
        "re"
      ],
      [
        "\"",
        "]"
      ],
      [
        "pe",
        "cted"
      ],
      [
        "u",
        "se"
      ],
      [
        "Ġimp",
        "ort"
      ],
      [
        "ar",
        "ray"
      ],
      [
        "Ġ",
        "or"
      ],
      [
        "ha",
        "pe"
      ],
      [
        "i",
        "f"
      ],
      [
        "v",
        "er"
      ],
      [
        "Ġb",
        "e"
      ],
      [
        "arg",
        "s"
      ],
      [
        "o",
        "m"
      ],
      [
        "el",
        "s"
      ],
      [
        "[",
        "\""
      ],
      [
        "Ġ",
        "C"
      ],
      [
        "ra",
        "in"
      ],
      [
        "di",
        "ct"
      ],
      [
        "em",
        "bed"
      ],
      [
        "i",
        "es"
      ],
      [
        "m",
        "age"
      ],
      [
        "Ġ\"",
        "\"\""
      ],
      [
        "v",
        "e"
      ],
      [
        "Ġ",
        "r"
      ],
      [
        "e",
        "at"
      ],
      [
        "o",
        "utput"
      ],
      [
        "o",
        "s"
      ],
      [
        "Ġn",
        "p"
      ],
      [
        "c",
        "lass"
      ],
      [
        "i",
        "x"
      ],
      [
        "n",
        "um"
      ],
      [
        "al",
        "se"
      ],
      [
        "Ġt",
        "orch"
      ],
      [
        "Ġex",
        "pected"
      ],
      [
        "u",
        "re"
      ],
      [
        "Ġ",
        "{"
      ],
      [
        "Ġ",
        "g"
      ],
      [
        "lo",
        "at"
      ],
      [
        "F",
        "alse"
      ],
      [
        "Ġ=",
        "="
      ],
      [
        "Ġ",
        ":"
      ],
      [
        "c",
        "on"
      ],
      [
        "qu",
        "al"
      ],
      [
        "Ġo",
        "utput"
      ],
      [
        "t",
        "er"
      ],
      [
        "Ġ",
        "assert"
      ],
      [
        "T",
        "ensor"
      ],
      [
        ")",
        "."
      ],
      [
        "Ġn",
        "um"
      ],
      [
        "=",
        "="
      ],
      [
        "a",
        "ult"
      ],
      [
        "Ġ",
        "3"
      ],
      [
        "Ġm",
        "a"
      ],
      [
        "e",
        "ight"
      ],
      [
        "Ġ",
        "lo"
      ],
      [
        "T",
        "rue"
      ],
      [
        "r",
        "ame"
      ],
      [
        "ran",
        "s"
      ],
      [
        "in",
        "e"
      ],
      [
        "it",
        "ion"
      ],
      [
        "ĠĠĠĠ",
        "ĠĠĠĠ"
      ],
      [
        "Ġ",
        "en"
      ],
      [
        "Ġ",
        "D"
      ],
      [
        "Ġ",
        "L"
      ],
      [
        "u",
        "s"
      ],
      [
        "Ġ",
        "_"
      ],
      [
        "e",
        "t"
      ],
      [
        "iz",
        "er"
      ],
      [
        "r",
        "or"
      ],
      [
        "a",
        "st"
      ],
      [
        "Ġ",
        "y"
      ],
      [
        "n",
        "ame"
      ],
      [
        "im",
        "e"
      ],
      [
        "Ġto",
        "ken"
      ],
      [
        "a",
        "che"
      ],
      [
        "in",
        "dex"
      ],
      [
        "0",
        "1"
      ],
      [
        "b",
        "o"
      ],
      [
        "Ġ",
        "use"
      ],
      [
        "Ġ",
        "hidden"
      ],
      [
        "val",
        "ue"
      ],
      [
        "i",
        "se"
      ],
      [
        "at",
        "h"
      ],
      [
        "de",
        "f"
      ],
      [
        "he",
        "ad"
      ],
      [
        "g",
        "th"
      ],
      [
        "li",
        "st"
      ],
      [
        "lay",
        "er"
      ],
      [
        "or",
        "e"
      ],
      [
        "Ġi",
        "mage"
      ],
      [
        "Ġ",
        "+"
      ],
      [
        "s",
        "s"
      ],
      [
        "Ġ",
        "P"
      ],
      [
        "Ġc",
        "on"
      ],
      [
        "e",
        "ct"
      ],
      [
        "ĠO",
        "ptional"
      ],
      [
        "len",
        "gth"
      ],
      [
        "se",
        "t"
      ],
      [
        "im",
        "age"
      ],
      [
        "Ġe",
        "l"
      ],
      [
        "Ġ(",
        "`"
      ],
      [
        "Ġ",
        "result"
      ],
      [
        "Ġel",
        "se"
      ],
      [
        "o",
        "c"
      ],
      [
        "Ġ",
        "h"
      ],
      [
        "p",
        "ort"
      ],
      [
        "t",
        "a"
      ],
      [
        "en",
        "ce"
      ],
      [
        "Ġ",
        "st"
      ],
      [
        ")",
        ")"
      ],
      [
        "`",
        ","
      ],
      [
        "p",
        "le"
      ],
      [
        "i",
        "le"
      ],
      [
        ".",
        "_"
      ],
      [
        "a",
        "se"
      ],
      [
        "po",
        "s"
      ],
      [
        "Ġdef",
        "ault"
      ],
      [
        "w",
        "args"
      ],
      [
        "i",
        "al"
      ],
      [
        "Ġ",
        "l"
      ],
      [
        "Ġd",
        "type"
      ],
      [
        "c",
        "al"
      ],
      [
        "en",
        "se"
      ],
      [
        "p",
        "er"
      ],
      [
        "Ġ",
        "'"
      ],
      [
        "ces",
        "sor"
      ],
      [
        "(",
        "["
      ],
      [
        "rans",
        "form"
      ],
      [
        "d",
        "ata"
      ],
      [
        "d",
        "type"
      ],
      [
        "ĠT",
        "he"
      ],
      [
        "ar",
        "e"
      ],
      [
        "b",
        "j"
      ],
      [
        "w",
        "eight"
      ],
      [
        "l",
        "y"
      ],
      [
        "s",
        "hape"
      ],
      [
        "Ġ",
        "as"
      ],
      [
        "lab",
        "els"
      ],
      [
        "p",
        "s"
      ],
      [
        "Ġ",
        "attention"
      ],
      [
        "in",
        "it"
      ],
      [
        "Ġc",
        "o"
      ],
      [
        "ic",
        "ense"
      ],
      [
        "Ġf",
        "rom"
      ],
      [
        "an",
        "ce"
      ],
      [
        "Ġp",
        "ro"
      ],
      [
        "k",
        "wargs"
      ],
      [
        "ar",
        "n"
      ],
      [
        "ð",
        "Ł"
      ],
      [
        "f",
        "eat"
      ],
      [
        "vi",
        "ce"
      ],
      [
        "am",
        "pl"
      ],
      [
        "d",
        "im"
      ],
      [
        "ðŁ",
        "ļ"
      ],
      [
        "ðŁļ",
        "¨"
      ],
      [
        "Ġ",
        "v"
      ],
      [
        "Ġ",
        "on"
      ],
      [
        "ðŁļ¨",
        "ðŁļ¨"
      ],
      [
        "Ġd",
        "f"
      ],
      [
        "E",
        "r"
      ],
      [
        "ct",
        "ion"
      ],
      [
        "]",
        ")"
      ],
      [
        "t",
        "rain"
      ],
      [
        "e",
        "w"
      ],
      [
        "Ġ",
        "R"
      ],
      [
        "Er",
        "ror"
      ],
      [
        "I",
        "n"
      ],
      [
        "en",
        "er"
      ],
      [
        "t",
        "r"
      ],
      [
        "is",
        "ion"
      ],
      [
        "Ġ",
        "un"
      ],
      [
        ">>",
        ">"
      ],
      [
        "ra",
        "ise"
      ],
      [
        "e",
        "qual"
      ],
      [
        "o",
        "ptional"
      ],
      [
        "input",
        "s"
      ],
      [
        "M",
        "odel"
      ],
      [
        "Ġ",
        ">>>"
      ],
      [
        "o",
        "w"
      ],
      [
        "Ġ",
        ".."
      ],
      [
        "Ġp",
        "ar"
      ],
      [
        "Ġ",
        "str"
      ],
      [
        "an",
        "n"
      ],
      [
        "Ġd",
        "i"
      ],
      [
        "t",
        "ext"
      ],
      [
        "ur",
        "es"
      ],
      [
        "ding",
        "s"
      ],
      [
        "Ġw",
        "h"
      ],
      [
        "Ġp",
        "re"
      ],
      [
        "de",
        "d"
      ],
      [
        "----",
        "----"
      ],
      [
        "#",
        "#"
      ],
      [
        "Ġd",
        "ata"
      ],
      [
        "t",
        "ime"
      ],
      [
        "a",
        "g"
      ],
      [
        "Ġ",
        "X"
      ],
      [
        "b",
        "atch"
      ],
      [
        "it",
        "s"
      ],
      [
        "at",
        "or"
      ],
      [
        "n",
        "orm"
      ],
      [
        "Ġp",
        "y"
      ],
      [
        "u",
        "b"
      ],
      [
        "a",
        "p"
      ],
      [
        "s",
        "ion"
      ],
      [
        "pe",
        "c"
      ],
      [
        "Ġth",
        "at"
      ],
      [
        "Ġ",
        "@"
      ],
      [
        "co",
        "l"
      ],
      [
        "Ġ",
        "G"
      ],
      [
        "Ġ",
        "B"
      ],
      [
        "a",
        "ck"
      ],
      [
        "i",
        "p"
      ],
      [
        "m",
        "ent"
      ],
      [
        "Ġ",
        "M"
      ],
      [
        "Ġ-",
        ">"
      ],
      [
        "u",
        "le"
      ],
      [
        "n",
        "s"
      ],
      [
        "n",
        "p"
      ],
      [
        "Ġ",
        "4"
      ],
      [
        "Ġ",
        "W"
      ],
      [
        "il",
        "l"
      ],
      [
        "i",
        "b"
      ],
      [
        "lo",
        "g"
      ],
      [
        "Ġin",
        "t"
      ],
      [
        "f",
        "f"
      ],
      [
        "p",
        "ath"
      ],
      [
        "ĠL",
        "icense"
      ],
      [
        "pos",
        "ition"
      ],
      [
        "ar",
        "d"
      ],
      [
        "att",
        "n"
      ],
      [
        "ĠI",
        "n"
      ],
      [
        "in",
        "d"
      ],
      [
        "ct",
        "or"
      ],
      [
        "i",
        "r"
      ],
      [
        "am",
        "ple"
      ],
      [
        "od",
        "ule"
      ],
      [
        "Ġ",
        "an"
      ],
      [
        "id",
        "x"
      ],
      [
        "Ġ",
        "are"
      ],
      [
        "Ġ",
        "N"
      ],
      [
        "Ġin",
        "dex"
      ],
      [
        "er",
        "ies"
      ],
      [
        "and",
        "om"
      ],
      [
        "Ġpy",
        "test"
      ],
      [
        "Ġt",
        "m"
      ],
      [
        "an",
        "t"
      ],
      [
        "Ġ..",
        "."
      ],
      [
        "ro",
        "up"
      ],
      [
        "ampl",
        "es"
      ],
      [
        "f",
        "loat"
      ],
      [
        "qu",
        "ence"
      ],
      [
        "lay",
        "ers"
      ],
      [
        "Ġb",
        "o"
      ],
      [
        "6",
        "4"
      ],
      [
        "st",
        "ate"
      ],
      [
        "Ġ",
        "x"
      ],
      [
        "i",
        "st"
      ],
      [
        "ma",
        "x"
      ],
      [
        "F",
        "rame"
      ],
      [
        "am",
        "es"
      ],
      [
        "he",
        "ck"
      ],
      [
        "token",
        "s"
      ],
      [
        "c",
        "l"
      ],
      [
        "s",
        "c"
      ],
      [
        "Ġ[",
        "\""
      ],
      [
        "py",
        "test"
      ],
      [
        "en",
        "d"
      ],
      [
        "ran",
        "ge"
      ],
      [
        "ces",
        "s"
      ],
      [
        "u",
        "st"
      ],
      [
        "bj",
        "ect"
      ],
      [
        "ata",
        "Frame"
      ],
      [
        "ab",
        "le"
      ],
      [
        "\"\"",
        "\""
      ],
      [
        "a",
        "y"
      ],
      [
        "Ġ",
        "E"
      ],
      [
        "Ġ",
        "key"
      ],
      [
        "1",
        "6"
      ],
      [
        "==",
        "=="
      ],
      [
        "Ġd",
        "o"
      ],
      [
        "C",
        "onfig"
      ],
      [
        "m",
        "e"
      ],
      [
        "Ġ*",
        "*"
      ],
      [
        "ar",
        "y"
      ],
      [
        "ar",
        "t"
      ],
      [
        "/",
        "/"
      ],
      [
        "Ġ",
        "False"
      ],
      [
        "Ġ",
        "V"
      ],
      [
        "st",
        "ance"
      ],
      [
        "im",
        "port"
      ],
      [
        "Ġb",
        "y"
      ],
      [
        "de",
        "vice"
      ],
      [
        "Ġ",
        "res"
      ],
      [
        "F",
        "or"
      ],
      [
        "e",
        "g"
      ],
      [
        "o",
        "ut"
      ],
      [
        "Ġma",
        "x"
      ],
      [
        "ĠT",
        "rue"
      ],
      [
        "Ġinput",
        "s"
      ],
      [
        "Ġc",
        "ol"
      ],
      [
        "embed",
        "dings"
      ],
      [
        "ar",
        "k"
      ],
      [
        "\")",
        ","
      ],
      [
        "feat",
        "ures"
      ],
      [
        "f",
        "a"
      ],
      [
        "\"",
        "],"
      ],
      [
        "b",
        "er"
      ],
      [
        "head",
        "s"
      ],
      [
        "h",
        "o"
      ],
      [
        "qu",
        "i"
      ],
      [
        "f",
        "t"
      ],
      [
        "e",
        "e"
      ],
      [
        "lo",
        "w"
      ],
      [
        "*",
        ","
      ],
      [
        "Ġ",
        "5"
      ],
      [
        "Ġ",
        "list"
      ],
      [
        "Ġp",
        "os"
      ],
      [
        "g",
        "g"
      ],
      [
        "'",
        ","
      ],
      [
        "d",
        "s"
      ],
      [
        "th",
        "od"
      ],
      [
        "Ġth",
        "is"
      ],
      [
        "Ġdefault",
        "s"
      ],
      [
        "Ġs",
        "up"
      ],
      [
        "[",
        ":"
      ],
      [
        "on",
        "g"
      ],
      [
        "Ġm",
        "ask"
      ],
      [
        "i",
        "ve"
      ],
      [
        "Ġ",
        "al"
      ],
      [
        "Ġ",
        "get"
      ],
      [
        "ult",
        "i"
      ],
      [
        "t",
        "ensor"
      ],
      [
        "po",
        "int"
      ],
      [
        "Ġ",
        "U"
      ],
      [
        "ate",
        "g"
      ],
      [
        "(",
        "):"
      ],
      [
        "d",
        "ro"
      ],
      [
        "ut",
        "o"
      ],
      [
        "Ġp",
        "ad"
      ],
      [
        "oc",
        "ab"
      ],
      [
        "Ġi",
        "t"
      ],
      [
        "po",
        "ut"
      ],
      [
        "par",
        "ame"
      ],
      [
        "in",
        "al"
      ],
      [
        "ĠD",
        "ataFrame"
      ],
      [
        "en",
        "coder"
      ],
      [
        "up",
        "le"
      ],
      [
        "__",
        "("
      ],
      [
        "att",
        "r"
      ],
      [
        "de",
        "coder"
      ],
      [
        "Ġse",
        "t"
      ],
      [
        "f",
        "er"
      ],
      [
        "ce",
        "pt"
      ],
      [
        "Ġn",
        "n"
      ],
      [
        "it",
        "y"
      ],
      [
        "i",
        "as"
      ],
      [
        "ate",
        "time"
      ],
      [
        "attention",
        "s"
      ],
      [
        "0",
        "2"
      ],
      [
        "c",
        "ache"
      ],
      [
        "at",
        "ed"
      ],
      [
        "ic",
        "es"
      ],
      [
        "Ġ",
        "raise"
      ],
      [
        "Ġ",
        "k"
      ],
      [
        "Ġ",
        "value"
      ],
      [
        "o",
        "u"
      ],
      [
        "Ġs",
        "hape"
      ],
      [
        "il",
        "s"
      ],
      [
        "m",
        "ark"
      ],
      [
        "`",
        "):"
      ],
      [
        "co",
        "m"
      ],
      [
        "embed",
        "s"
      ],
      [
        "Ġ",
        "all"
      ],
      [
        "as",
        "se"
      ],
      [
        "er",
        "n"
      ],
      [
        "f",
        "ile"
      ],
      [
        "output",
        "s"
      ],
      [
        "Ġ(",
        "\""
      ],
      [
        "f",
        "rame"
      ],
      [
        "]",
        "]"
      ],
      [
        "al",
        "ue"
      ],
      [
        ".",
        "__"
      ],
      [
        "if",
        "ic"
      ],
      [
        "lo",
        "ck"
      ],
      [
        "Ġm",
        "e"
      ],
      [
        "Ġ",
        "le"
      ],
      [
        "th",
        "er"
      ],
      [
        "Ġc",
        "heck"
      ],
      [
        "f",
        "or"
      ],
      [
        "Ġ1",
        "00"
      ],
      [
        "Ġw",
        "e"
      ],
      [
        "`",
        "."
      ],
      [
        "p",
        "ad"
      ],
      [
        "pro",
        "j"
      ],
      [
        "ar",
        "get"
      ],
      [
        "alue",
        "Error"
      ],
      [
        "l",
        "ine"
      ],
      [
        "ro",
        "w"
      ],
      [
        "f",
        "un"
      ],
      [
        "Ġ",
        "values"
      ],
      [
        "m",
        "bed"
      ],
      [
        "k",
        "ip"
      ],
      [
        "arn",
        "ing"
      ],
      [
        "vi",
        "de"
      ],
      [
        "id",
        "th"
      ],
      [
        "Ġ",
        "__"
      ],
      [
        "pro",
        "cessor"
      ],
      [
        "w",
        "ard"
      ],
[...]
